<pad>	0
<unk>	0
<s>	0
</s>	0
▁	-4.0084
...	-4.30576
.	-4.35969
..	-4.51296
്	-4.87775
▁like	-4.95492
e	-5.02781
....	-5.05125
▁oru	-5.23609
▁ഒരു	-5.32001
ം	-5.33773
▁trailer	-5.40069
m	-5.54264
a	-5.55021
um	-5.694
u	-5.71091
ും	-5.72049
▁ഈ	-5.78639
▁padam	-5.82478
▁fans	-5.83969
.....	-5.89126
▁പടം	-5.93988
▁movie	-6.00616
s	-6.08449
▁ഇത്	-6.09164
▁mass	-6.12459
ൻ	-6.14078
▁Trailer	-6.17579
െ	-6.23916
▁#	-6.23935
▁ikka	-6.24267
k	-6.24339
ൽ	-6.25006
▁a	-6.26398
▁ആണ്	-6.2764
▁സിനിമ	-6.30449
▁waiting	-6.31059
?	-6.31273
▁.	-6.31942
▁fan	-6.34363
y	-6.35593
i	-6.38985
▁Manju	-6.39243
▁adi	-6.45617
o	-6.45658
ന്റെ	-6.46091
am	-6.47924
▁എന്ന്	-6.4843
ു	-6.48977
▁Oru	-6.50064
▁A	-6.50191
▁..	-6.50904
▁...	-6.51088
▁I	-6.55827
▁pole	-6.55863
an	-6.56417
ിൽ	-6.57085
▁ആ	-6.5939
il	-6.62288
l	-6.63084
▁എന്റെ	-6.63744
▁Warrier	-6.63854
n	-6.65616
▁ee	-6.69336
▁lalettan	-6.70387
▁ennu	-6.70487
de	-6.72755
▁Padam	-6.75087
r	-6.76952
▁level	-6.80186
......	-6.81085
ക്ക്	-6.81863
▁enn	-6.82238
▁katta	-6.82905
▁ലൈക്	-6.82966
▁illa	-6.86119
▁the	-6.86886
'	-6.8699
▁super	-6.87163
ർ	-6.8721
▁k	-6.87627
▁film	-6.87633
▁ഇ	-6.8775
▁cinema	-6.88094
▁hit	-6.8846
യും	-6.90785
▁2	-6.91186
▁kandu	-6.92816
▁Ee	-6.93431
േ	-6.93451
യുടെ	-6.93552
▁തന്നെ	-6.94845
▁ഞാൻ	-6.94977
▁vere	-6.95038
▁പോലെ	-6.95147
▁Ikka	-6.95732
▁അ	-6.97927
▁ഫാൻസ്	-6.98372
▁and	-6.98593
▁Lalettan	-6.99042
nu	-7.00542
▁dislike	-7.01774
▁....	-7.01974
▁aanu	-7.02488
▁aa	-7.04857
▁ettan	-7.05524
▁എന്ന	-7.05931
al	-7.07018
▁നല്ല	-7.0767
ാൻ	-7.0839
▁മാസ്സ്	-7.08535
▁E	-7.10383
▁item	-7.10525
▁from	-7.11195
te	-7.11976
▁views	-7.13842
▁e	-7.14828
▁nalla	-7.15311
▁Ith	-7.16371
ിന്റെ	-7.16547
▁ith	-7.16607
▁poli	-7.16854
▁ഏട്ടൻ	-7.1789
ing	-7.18015
▁100	-7.18676
▁ഇവിടെ	-7.19023
▁best	-7.19742
▁1	-7.19819
▁M	-7.19946
▁thanne	-7.20113
▁ട്രൈലെർ	-7.20198
▁in	-7.20229
oru	-7.20569
▁ka	-7.20772
▁Katta	-7.2089
ോ	-7.21364
▁അല്ല	-7.21448
▁K	-7.21743
▁പോയി	-7.22557
▁is	-7.22944
▁അടി	-7.231
le	-7.24247
▁alla	-7.24331
▁ഇനി	-7.24688
▁kanan	-7.24757
▁of	-7.25043
▁njan	-7.25162
ത്	-7.25202
▁എല്ലാ	-7.25831
▁കട്ട	-7.26671
▁Like	-7.26862
▁kidu	-7.27463
▁you	-7.27587
▁for	-7.27617
▁il	-7.2791
inte	-7.28173
▁P	-7.28341
▁ലാലേട്ടൻ	-7.29168
▁കാണാൻ	-7.29733
▁ഇക്ക	-7.29896
▁S	-7.30494
▁ഒന്ന്	-7.30662
▁vannavar	-7.3094
yum	-7.31063
▁Ithu	-7.31717
▁കണ്ടു	-7.31806
▁-	-7.34426
▁വേറെ	-7.34558
▁bgm	-7.35145
▁kand	-7.35428
▁u	-7.37365
▁dialogue	-7.392
▁raja	-7.39765
▁aayi	-7.3988
!	-7.40381
▁onnu	-7.40446
▁look	-7.40565
▁und	-7.40669
▁എനിക്ക	-7.4137
▁Lucifer	-7.41854
▁മലയാള	-7.42094
▁enna	-7.42149
▁മഞ്ജു	-7.42821
▁undo	-7.42969
ാൽ	-7.43697
▁മാത്രം	-7.43879
t	-7.44211
ാണ്	-7.44916
▁Mass	-7.46081
▁Malayalam	-7.46214
ടെ	-7.46694
സ്	-7.47191
▁love	-7.47767
▁ഇല്ല	-7.48191
▁മമ്മൂക്ക	-7.4897
aa	-7.49865
▁ലൈക്ക്	-7.50245
▁F	-7.50317
▁ithu	-7.50694
പ്പോൾ	-7.50773
▁പൊളിക്കും	-7.50944
▁Njan	-7.51488
▁here	-7.51801
▁Ente	-7.51843
▁anu	-7.53043
)	-7.5365
nte	-7.53715
▁to	-7.53808
▁കണ്ട	-7.54579
▁i	-7.55226
M	-7.55837
▁onnum	-7.55933
▁on	-7.55955
ി	-7.55961
ൾ	-7.55985
ാ	-7.56085
ya	-7.56272
▁ivide	-7.57168
▁sir	-7.57326
▁makkale	-7.58463
▁kaanan	-7.58855
▁&	-7.58953
▁p	-7.59099
▁(	-7.59392
▁Dislike	-7.59476
▁veendum	-7.5948
▁b	-7.59506
▁ചേച്ചി	-7.598
▁vannu	-7.59896
▁mathram	-7.60337
▁ഡയലോഗ്	-7.6178
▁ulla	-7.61831
▁ഒക്കെ	-7.62943
▁ആയി	-7.63263
▁മലയാളം	-7.63564
▁ente	-7.63632
▁ഫാൻ	-7.63787
▁but	-7.64261
▁teaser	-7.64389
▁B	-7.64542
th	-7.64933
▁malayalam	-7.65136
▁ശേഷം	-7.65143
▁polikkum	-7.65567
▁m	-7.6594
▁ma	-7.66093
d	-7.66344
▁poyi	-7.66486
▁അത്	-7.67267
ee	-7.67941
▁n	-7.68122
yude	-7.68308
▁N	-7.68916
▁feel	-7.6922
ne	-7.69448
▁ആണോ	-7.69715
illa	-7.70346
▁s	-7.70561
▁ടീസർ	-7.70677
anu	-7.70712
▁സൂപ്പർ	-7.70795
▁okke	-7.70998
▁ജോഷി	-7.71058
▁kandavar	-7.71241
er	-7.71318
▁Raja	-7.71703
കൊണ്ട്	-7.72071
▁4	-7.72276
oo	-7.72366
▁laletta	-7.72411
▁Super	-7.72937
▁ഉണ്ട്	-7.74025
▁മൂവി	-7.74072
▁ഉള്ള	-7.74577
▁mammookka	-7.74582
▁ഐറ്റം	-7.74757
യിൽ	-7.74839
▁big	-7.75684
▁ഉണ്ടോ	-7.75813
▁polichu	-7.75826
▁വീണ്ടും	-7.75855
nnu	-7.75955
▁pwoli	-7.76222
▁nte	-7.76384
▁koodi	-7.76786
▁t	-7.76836
▁kanda	-7.77135
▁all	-7.77202
la	-7.77249
▁ക	-7.77275
▁ആയിരിക്കും	-7.77931
▁5	-7.78261
▁10	-7.78768
▁wait	-7.78963
ude	-7.80211
h	-7.80899
▁D	-7.81041
▁alle	-7.81054
the	-7.81212
▁C	-7.81438
▁ചെയ്ത	-7.81533
.......	-7.81771
▁scene	-7.82084
▁ലെവൽ	-7.82294
▁marana	-7.82432
avar	-7.83604
kku	-7.83872
▁All	-7.83907
▁Mohanlal	-7.83979
var	-7.8539
▁പൊളി	-7.85673
▁?	-7.85724
▁T	-7.86038
വർ	-7.86041
▁subscribe	-7.86231
▁ഇതു	-7.86586
▁comment	-7.86642
-	-7.86945
▁ഓണം	-7.87008
▁ella	-7.87222
▁parayan	-7.87348
▁po	-7.8753
▁Waiting	-7.87943
Love	-7.8841
▁release	-7.89209
▁ചാനൽ	-7.8922
▁:	-7.907
??	-7.90765
K	-7.9099
▁മ	-7.9103
thu	-7.91083
വും	-7.91221
▁അടുത്ത	-7.91301
▁L	-7.91314
kk	-7.91674
▁O	-7.92038
▁എത്ര	-7.92544
▁കണ്ട്	-7.92672
▁മാമാങ്കം	-7.93199
▁kond	-7.93212
da	-7.93566
ത്തിൽ	-7.93683
▁Kidu	-7.9375
▁'	-7.94202
▁നിവിൻ	-7.94285
▁likes	-7.94475
▁ne	-7.94511
▁adich	-7.94531
▁എ	-7.94669
lla	-7.95052
▁Nalla	-7.95572
▁aano	-7.95611
▁കൂടി	-7.95784
▁chechi	-7.95875
▁ഇട്ടിമാണി	-7.95986
▁ഒന്നു	-7.96
യ	-7.96146
ulla	-7.96277
ൊരു	-7.96442
ുള്ള	-7.96442
▁.....	-7.96471
▁പക്ഷെ	-7.96784
ക്കും	-7.96825
ka	-7.9689
▁തോന്നുന്നു	-7.96971
lum	-7.96982
▁+	-7.9699
▁Fans	-7.97287
▁പൊളിച്ചു	-7.97391
▁🤩	-7.97748
▁mohanlal	-7.9776
▁ആണെന്ന്	-7.98015
▁Ettan	-7.98086
▁കണ്ടിട്ട്	-7.98102
S	-7.98184
▁kandit	-7.98586
കാത്തിരിക്കുന്നു	-7.99085
▁pora	-7.99245
▁onn	-7.99287
▁adichu	-7.99464
▁am	-7.99703
▁pa	-7.99787
ar	-8.00202
നെ	-8.00362
▁shesham	-8.00689
▁ഭാഷ	-8.00705
▁3	-8.01109
▁aan	-8.0123
▁കൊല	-8.01355
െങ്കിൽ	-8.01453
kum	-8.01738
▁it	-8.01846
▁support	-8.01876
▁manju	-8.02437
▁mathi	-8.03293
▁വീഡിയോ	-8.03343
inu	-8.03617
▁kanditt	-8.03829
ലെ	-8.03853
▁da	-8.04292
▁Mammookka	-8.04923
▁കിടു	-8.05323
kkum	-8.05426
▁njn	-8.05551
▁lucifer	-8.05713
in	-8.05759
st	-8.05996
ku	-8.06699
▁വന്ന	-8.06802
▁8	-8.06806
ile	-8.06834
▁ഇക്കാ	-8.06874
▁ano	-8.07203
\	-8.07546
ങ്ങൾ	-8.07614
▁ഹിറ്റ്	-8.07631
athe	-8.07701
▁million	-8.07784
നും	-8.07983
Y	-8.08086
▁ini	-8.08139
▁അടിച്ചു	-8.08202
ത്തെ	-8.08726
▁ningal	-8.08902
▁നമ്മുടെ	-8.09089
▁മക്കളെ	-8.0911
▁role	-8.09167
▁ന്റെ	-8.09302
▁cr	-8.0975
athu	-8.09795
▁athu	-8.09923
ayi	-8.10198
▁കഥ	-8.10252
▁ജോജു	-8.10588
▁വന്നു	-8.10648
▁star	-8.10745
▁day	-8.11266
▁full	-8.11297
▁pinne	-8.11432
▁Suraj	-8.115
െങ്കിലും	-8.12046
▁V	-8.12211
▁അടിപൊളി	-8.12257
▁ഇത	-8.12469
▁കണ്ടപ്പോ	-8.12532
▁ഒന്ന	-8.12579
▁kondu	-8.1297
▁പ്രതീക്ഷ	-8.13009
or	-8.13067
okke	-8.13237
▁kan	-8.13642
▁vendi	-8.13713
▁orma	-8.13912
▁വേണ്ടി	-8.1405
▁nu	-8.14369
▁adipoli	-8.14492
ന്ന്	-8.14669
1	-8.14728
tha	-8.1484
▁എന്താ	-8.14924
▁BGM	-8.15129
▁പറ	-8.15385
ra	-8.15427
▁ullu	-8.15457
▁പിന്നെ	-8.15897
ാതെ	-8.16117
▁പോല	-8.1614
▁ethra	-8.16331
▁Big	-8.16479
▁ട്രയ്ലർ	-8.16586
▁ponno	-8.16635
▁Teaser	-8.16695
▁ഇജ്ജാതി	-8.16707
▁മതി	-8.16793
▁no	-8.16873
▁Fan	-8.16911
▁ആരോ	-8.17124
en	-8.17592
ക്കാൻ	-8.18073
റെ	-8.18433
▁എന്ത്	-8.18555
▁Raju	-8.18639
▁kandittu	-8.18769
▁team	-8.18924
ര	-8.19121
ന്നു	-8.19307
▁Tamil	-8.19866
▁ഇതൊക്കെ	-8.19903
▁!	-8.20057
▁Mamangam	-8.20084
▁ഇങ്ങനെ	-8.20547
▁സ	-8.20823
▁അല്ലെ	-8.21099
▁ലാലേട്ടന്റെ	-8.21398
▁or	-8.21638
ില്ല	-8.22807
ുടെ	-8.22823
▁വെയ്റ്റിംഗ്	-8.231
▁channel	-8.23335
kal	-8.23361
▁odiyan	-8.23715
▁evide	-8.24227
▁വ	-8.24542
▁my	-8.24668
▁adikk	-8.24734
▁ഫിലിം	-8.24785
▁Bgm	-8.24861
p	-8.24938
▁eth	-8.2503
▁പറഞ്ഞ	-8.25051
▁നിന്ന	-8.25212
yam	-8.25269
▁H	-8.25624
▁v	-8.25968
▁en	-8.26074
0	-8.26306
▁ivde	-8.26523
▁FAN	-8.26525
▁കിടിലൻ	-8.26556
▁o	-8.26774
▁man	-8.26829
▁ayi	-8.26877
▁um	-8.2699
ath	-8.27126
aaa	-8.27155
▁പ	-8.27207
▁c	-8.2727
▁Prithviraj	-8.27288
▁വരെ	-8.2736
▁chettan	-8.27805
▁video	-8.28083
▁Cinema	-8.28409
▁Ini	-8.28498
▁story	-8.28642
▁ത	-8.29606
▁adiche	-8.29647
▁rakshayum	-8.29963
▁Best	-8.30107
ikka	-8.30249
്റെ	-8.30278
▁pakshe	-8.30488
▁സിനിമയിൽ	-8.30507
???	-8.3052
യാണ്	-8.30633
▁kooduthal	-8.31911
▁Poli	-8.32135
▁പേര്	-8.32221
▁koode	-8.32311
2	-8.32876
na	-8.33477
▁entha	-8.33748
▁🤔	-8.34079
:	-8.3441
▁കുറച്ച	-8.34516
▁vare	-8.34708
▁വിജയ	-8.34765
▁ishtam	-8.34797
▁Eee	-8.35203
ന്നും	-8.35304
▁thavana	-8.35375
▁ki	-8.35648
▁മോഹൻലാൽ	-8.35652
ye	-8.35742
▁G	-8.36064
▁R	-8.36209
▁kola	-8.36276
▁മമ്മൂട്ടി	-8.36343
D	-8.37037
▁Th	-8.37051
▁de	-8.37096
▁Madhura	-8.37359
ായി	-8.375
▁ഫീൽ	-8.3752
▁പൊന്നോ	-8.37552
ാത്ത	-8.37657
ennu	-8.37679
▁me	-8.37705
▁ആര	-8.37725
▁aakum	-8.37737
▁2019	-8.37764
▁Vere	-8.37937
▁നിങ്ങൾ	-8.37964
▁mech	-8.38157
▁onam	-8.38395
ine	-8.38621
യെ	-8.38624
▁പോ	-8.39156
▁mone	-8.39208
▁adicha	-8.39339
▁l	-8.39365
8	-8.39455
▁പുതിയ	-8.39484
▁good	-8.39533
▁ലാലേട്ടാ	-8.39543
▁LIKE	-8.3963
▁na	-8.39977
▁annu	-8.40229
▁തിരിച്ചു	-8.40437
▁kure	-8.40725
▁കൂടെ	-8.40768
▁ath	-8.40912
▁kollam	-8.40995
▁le	-8.41074
▁വില്ലൻ	-8.41545
▁ethu	-8.41631
▁ബിഗ്	-8.41676
re	-8.41713
▁Mammukka	-8.41749
▁poi	-8.41955
▁tamil	-8.41975
▁Lal	-8.42053
▁d	-8.42073
▁king	-8.42156
▁polikum	-8.4227
▁Laletta	-8.42597
ce	-8.42828
▁കാ	-8.42855
▁U	-8.42953
▁കണ്ടവർ	-8.43038
▁കുഞ്ഞാലി	-8.43423
▁are	-8.43423
ല്ല	-8.4349
▁കോമഡി	-8.43521
▁loading	-8.43577
▁polum	-8.43971
kan	-8.43987
▁ഏട്ടന്റെ	-8.44199
▁!!	-8.44219
ed	-8.44329
▁an	-8.44587
ൗ	-8.44924
ണം	-8.45244
▁ചെയ്യ	-8.45269
▁sa	-8.45405
▁സ്കൂൾ	-8.45658
▁OF	-8.45702
katta	-8.46039
alla	-8.46131
▁pakka	-8.4634
ന്	-8.46455
▁കോടി	-8.46857
ada	-8.46866
nd	-8.47092
▁Ella	-8.47471
▁വിജയാശംസകൾ	-8.47733
▁comedy	-8.47796
റ്റ്	-8.47839
മ	-8.47923
▁സിനിമകൾ	-8.48102
▁r	-8.48149
▁ചിരി	-8.48235
▁powli	-8.48244
▁But	-8.48506
▁paranju	-8.48698
ിലെ	-8.48774
w	-8.49256
▁enikk	-8.49412
▁*	-8.49413
aan	-8.49485
(	-8.49515
▁വക	-8.49579
െയും	-8.49631
▁ഇത്ര	-8.4969
▁strong	-8.49741
▁so	-8.49757
▁nadan	-8.49833
▁enik	-8.49914
▁മാത്രമാണോ	-8.49914
▁ഒരേ	-8.49948
▁എന്നു	-8.49954
▁adikku	-8.50291
E	-8.50469
▁പോരാ	-8.50639
▁aayirikkum	-8.50699
▁നടൻ	-8.51069
▁brother	-8.51185
▁മമ്മുക്ക	-8.51463
▁movies	-8.51527
▁കാരണ	-8.51687
▁Movie	-8.51947
▁ട്രെയ്	-8.52144
*	-8.5218
▁വെച്ച	-8.52345
▁കൂടുതൽ	-8.52456
▁ഓ	-8.52488
▁adutha	-8.52608
▁എന്നാ	-8.52664
▁Enna	-8.52843
▁FDFS	-8.52942
▁va	-8.5301
▁ellam	-8.53261
▁adik	-8.53392
▁eee	-8.53428
▁Eth	-8.53438
▁Adipoli	-8.53463
▁200	-8.53523
!!	-8.53704
ക	-8.54017
▁urappullavar	-8.54193
aya	-8.54214
▁അങ്ങനെ	-8.54342
▁ഒരാൾ	-8.54404
▁Tovino	-8.54449
▁2020	-8.54484
▁പറഞ്ഞു	-8.5462
▁ഏത്	-8.54872
▁6	-8.54927
▁nammud	-8.54932
thinte	-8.55084
▁THE	-8.55099
ha	-8.55417
▁ഇട	-8.55428
▁nokkan	-8.559
കൾ	-8.56143
ൊക്കെ	-8.56242
A	-8.56318
▁mammukka	-8.56465
▁power	-8.56495
nn	-8.56809
▁ഇപ്പൊ	-8.56847
▁വലിയ	-8.56853
▁thonni	-8.56999
▁ലർ	-8.57082
v	-8.57231
▁Shylock	-8.57239
▁Aa	-8.5727
anam	-8.57391
▁ഹീറോ	-8.57572
nna	-8.57686
ta	-8.57701
▁paranja	-8.5811
▁oke	-8.58193
▁aaa	-8.58197
9	-8.58214
▁50	-8.58261
▁പൊറിഞ്ചു	-8.58379
ve	-8.58386
7	-8.58692
f	-8.58696
▁h	-8.58737
tta	-8.58861
L	-8.58861
▁മരണ	-8.58863
▁masss	-8.58947
▁unda	-8.59006
▁സബ്സ്ക്രൈബ്	-8.59108
▁വളരെ	-8.59117
▁industry	-8.59141
▁വന്നവർ	-8.59149
▁കമന്റ്	-8.5932
▁la	-8.59364
▁പറയാൻ	-8.59404
▁kalakki	-8.59433
▁Adi	-8.59485
▁🥰	-8.59517
▁uff	-8.59705
▁var	-8.5989
+	-8.6008
▁അങ്ങ	-8.60197
▁കൊണ്ട	-8.60287
🤩	-8.6067
▁f	-8.60763
ara	-8.60851
▁ad	-8.61053
▁Look	-8.6109
▁kandappo	-8.6141
▁ചെയ്തു	-8.61443
▁kali	-8.61491
b	-8.61537
▁രോമാഞ്ചം	-8.61563
▁Views	-8.61564
▁RAJA	-8.61592
▁button	-8.61609
▁first	-8.61727
▁pwolikkum	-8.61737
▁പറഞ്ഞാൽ	-8.6175
▁kidilan	-8.61756
▁മരക്കാർ	-8.6176
▁മലയാളത്തിൽ	-8.61887
▁ആയ	-8.62012
▁ippo	-8.62856
▁അടിച്ച	-8.63099
nam	-8.63466
▁re	-8.6354
▁ബ്രദർ	-8.64051
▁വിടമാട്ടെ	-8.64065
▁ആണല്ലോ	-8.64085
▁പഴയ	-8.64107
▁thriller	-8.64116
▁അസുരൻ	-8.64117
വ	-8.64261
▁ഷൈലോക്ക്	-8.64373
ിട്ട്	-8.64373
▁വര	-8.64492
▁vanna	-8.64497
പ്പൊ	-8.64522
▁സീൻ	-8.64607
▁എന്നെ	-8.64646
eee	-8.64704
്‍	-8.64756
▁undallo	-8.64942
cr	-8.65055
▁ni	-8.66206
▁parayanilla	-8.66442
▁direction	-8.66798
▁ചേട്ടൻ	-8.66826
▁vaka	-8.66833
ke	-8.66895
▁കൊല്ല	-8.67012
▁ind	-8.67101
▁last	-8.67194
▁കൊല്ലാമ	-8.67209
aanu	-8.67275
▁vi	-8.67318
▁=	-8.67406
ൂ	-8.67421
▁എന്തോ	-8.67428
ila	-8.67581
▁20	-8.67916
▁പോളി	-8.67938
I	-8.68008
▁Ma	-8.68041
atte	-8.6847
▁undu	-8.68577
lalettan	-8.68584
▁be	-8.68646
▁എന്നും	-8.6867
▁ingane	-8.68903
▁ninnu	-8.68942
▁actor	-8.68965
▁ഒരുപാട	-8.69001
യ്ക്ക്	-8.69047
▁Last	-8.69084
ലും	-8.69142
▁maathram	-8.69177
▁luck	-8.6925
▁LALETTAN	-8.69255
ടാ	-8.69258
▁trailor	-8.69319
▁back	-8.69502
▁മാറി	-8.69734
▁Odiyan	-8.69778
▁verum	-8.69788
▁Pwoli	-8.69866
▁song	-8.69868
▁lal	-8.6997
▁കളി	-8.70439
ode	-8.70443
ണ്	-8.70747
മായി	-8.70783
▁polich	-8.70834
▁സ്	-8.70981
thinu	-8.71236
▁uyir	-8.71236
▁engane	-8.71318
▁ഇതും	-8.71359
allo	-8.71559
10	-8.71695
▁Uff	-8.71923
▁ചെറിയ	-8.71948
▁ട്രെയിലർ	-8.71954
▁action	-8.72068
▁ഉറപ്പുള്ളവർ	-8.72095
▁kidukki	-8.72106
▁trending	-8.72143
▁മൊത്ത	-8.7218
▁ഞങ്ങൾ	-8.72462
▁ullavar	-8.72495
▁sound	-8.73027
▁fansinte	-8.73119
▁jai	-8.73547
▁Happ	-8.73699
▁മാത്രമ	-8.7379
▁aavum	-8.73854
▁at	-8.74322
#	-8.74449
ഡ്	-8.74568
▁തോന്നിയത്	-8.74737
▁കഴിഞ്ഞ	-8.7475
▁കൊള്ളാം	-8.74774
▁FANS	-8.74779
▁നമ്മൾ	-8.74801
▁show	-8.74838
▁Telugu	-8.74852
ച്ചു	-8.74869
▁വേണം	-8.74883
▁mammokka	-8.74951
▁date	-8.74972
▁ഇന്ന്	-8.7517
_	-8.75226
▁Kerala	-8.75229
▁as	-8.75235
ത	-8.75389
▁mamangam	-8.75412
vum	-8.75588
▁ഒ	-8.75771
▁ninn	-8.7594
ayalum	-8.7597
▁lalettante	-8.75987
▁chey	-8.76654
മാണ്	-8.76761
........	-8.76788
▁yude	-8.76892
▁Malayala	-8.77088
▁filim	-8.77328
▁time	-8.77367
▁adikkan	-8.77381
▁avan	-8.77486
▁entertainer	-8.77589
▁matram	-8.77636
N	-8.77641
▁heavy	-8.77861
▁പക്ഷേ	-8.77907
▁ഷൈൻ	-8.77951
▁hero	-8.77952
▁അഭിനയം	-8.78059
but	-8.78133
▁മികച്ച	-8.78159
▁peru	-8.78247
▁:)	-8.78285
▁malayala	-8.78414
R	-8.78629
▁7	-8.78795
▁prithviraj	-8.78998
ilum	-8.79054
ng	-8.79096
▁My	-8.7931
P	-8.79457
▁pooram	-8.79578
മോ	-8.79742
▁Onnu	-8.79833
ല്ലേ	-8.80215
▁ഉണ്ട	-8.80275
va	-8.803
യോ	-8.8037
▁ഫഹദ്	-8.80372
▁aaya	-8.80396
▁12	-8.80449
▁ഓർമ	-8.80521
▁സ്വന്തം	-8.80537
▁68	-8.80547
ല	-8.80595
▁കിളിച്ചുണ്ട	-8.8066
▁എജ്ജാതി	-8.80666
ുമ്പോൾ	-8.80751
▁pls	-8.80886
▁Nivin	-8.81018
▁akum	-8.81158
ext	-8.81317
▁ലെ	-8.81398
▁aarum	-8.81452
ettante	-8.81521
▁ithil	-8.81681
▁cheyyu	-8.81901
▁new	-8.82253
▁രാജു	-8.82275
!!!	-8.82396
▁ok	-8.82783
g	-8.82799
▁nammal	-8.83022
cha	-8.83053
▁രാക്ഷസ	-8.83522
▁ത്രില്ലെർ	-8.83552
▁Level	-8.83552
▁ഷമ്മി	-8.83617
▁birthday	-8.83626
▁pottum	-8.83668
▁കുറെ	-8.83675
▁kandappol	-8.83744
▁കാണാം	-8.83757
▁9	-8.83908
▁varum	-8.83918
സ്റ്റ്	-8.83955
പ്പ്	-8.84074
ooo	-8.84077
▁pani	-8.84103
ക്	-8.84119
▁21	-8.8415
▁cheyyan	-8.84276
▁ഏത	-8.84367
▁padathil	-8.84404
▁scenes	-8.84448
▁che	-8.84598
▁vann	-8.84962
ോട്	-8.8502
▁ബ	-8.85083
▁venda	-8.85492
ill	-8.855
▁)	-8.85629
▁enne	-8.85769
▁അവസാന	-8.85843
ല്ലോ	-8.85926
ch	-8.85932
▁മാസ്	-8.86079
▁ആശംസകൾ	-8.86677
▁rakshem	-8.86697
ണ്ട്	-8.86738
▁ലുക്ക്	-8.86792
▁It	-8.86796
▁സപ്പോർട്ട്	-8.868
▁repeat	-8.86819
▁touch	-8.86819
▁valiya	-8.86833
▁kadha	-8.86866
▁ഉള്ളവർ	-8.86878
▁ഇതാണ്	-8.86949
▁Unni	-8.8699
padam	-8.87105
▁Ethu	-8.87302
this	-8.87481
made	-8.87551
uuu	-8.87686
alum	-8.87732
▁paranjal	-8.87751
▁ഹ	-8.8779
▁No	-8.87924
▁enikku	-8.88162
iya	-8.88225
▁rajuvettan	-8.88227
▁enth	-8.8824
▁ഞങ്ങ	-8.88291
▁ഒന്നൊന്ന	-8.88449
▁ye	-8.88513
di	-8.88557
െന്ന്	-8.88807
▁per	-8.88846
ithu	-8.89013
▁Wow	-8.89503
num	-8.89786
▁Mohan	-8.89921
▁mammooka	-8.89971
▁റിലീസ്	-8.89987
ത്തിന്റെ	-8.89999
▁Hit	-8.90021
▁ചെയ്തത്	-8.90133
▁|	-8.90195
ാതിരി	-8.90344
▁name	-8.90591
▁പിള്ളേരോട	-8.90621
▁കുമ്പളങ്ങി	-8.90703
▁ചെയ്യുന്ന	-8.90709
▁ഡിസ്	-8.90771
ച്ച	-8.90918
ma	-8.9125
▁vechu	-8.913
ുന്ന	-8.91311
athil	-8.91331
▁come	-8.91453
▁mar	-8.91571
▁ഫ	-8.91596
pole	-8.91768
ju	-8.91985
ru	-8.92133
▁ഉ	-8.92281
▁ചെയ്യാ	-8.92287
▁anna	-8.92414
▁അഭിനയ	-8.92417
ollywood	-8.92549
▁character	-8.92737
rom	-8.92809
▁aya	-8.93079
▁നീ	-8.93123
▁villan	-8.93234
🤬	-8.93236
▁again	-8.93239
ുന്നു	-8.9324
▁unlike	-8.93248
▁acting	-8.93251
▁baap	-8.93292
▁കാണണം	-8.93304
▁aane	-8.93313
▁padavum	-8.93356
onnum	-8.93367
ion	-8.93411
▁വന്നത്	-8.93433
▁ഏറ്റവ	-8.93451
▁ഓരോ	-8.93478
▁etta	-8.9348
▁police	-8.9348
▁Enta	-8.9351
റ	-8.93563
▁ദിവസ	-8.93664
▁MASS	-8.93724
very	-8.93803
▁par	-8.93848
▁Lalettante	-8.93924
▁വരുന്ന	-8.94051
▁ippol	-8.94077
▁angu	-8.94259
▁part	-8.9453
▁raksha	-8.94545
▁ന	-8.94617
▁kandal	-8.94619
▁ഇൻഡസ്ട്രിയ	-8.94798
▁ഒറ്റ	-8.94869
▁arum	-8.94889
▁venam	-8.94906
ation	-8.94911
kkan	-8.94992
▁പട	-8.95132
▁30	-8.95197
4	-8.95213
▁കിടന്ന	-8.95362
▁Vi	-8.95447
▁para	-8.95448
lo	-8.95661
▁kerala	-8.95888
▁raju	-8.95931
▁ഫാൻസി	-8.96362
ീ	-8.96403
▁1:	-8.9646
▁ഫാൻസ	-8.965
▁nadu	-8.96504
thil	-8.96523
▁mathramano	-8.96555
ly	-8.966
▁kurachu	-8.96604
▁tha	-8.96731
O	-8.96741
▁Superb	-8.96745
▁doubt	-8.96747
▁ഇഷ്ടം	-8.96753
▁aarokke	-8.96758
▁സത്യം	-8.96782
▁നെ	-8.96784
▁വരവ്	-8.96817
▁എന്തായാലും	-8.97034
▁അടിക്ക്	-8.97064
▁mammootty	-8.97128
▁kore	-8.9713
▁കാണും	-8.97209
▁ആവും	-8.97284
▁ആരാധിച്ച	-8.97386
▁ലാലേട്ടനെ	-8.97521
▁etra	-8.97524
▁making	-8.97616
engilum	-8.97697
ന്‍	-8.97737
▁Kola	-8.97849
▁Trail	-8.97952
iety	-8.9802
▁തുടങ്ങി	-8.98224
▁ൽ	-8.98299
▁കാണ	-8.9837
avum	-8.98381
ll	-8.98509
▁cut	-8.98651
▁ആരാ	-8.98854
▁??	-8.98941
▁സിനിമയിലെ	-8.99137
യ്	-8.99153
vek	-8.99161
▁തവണ	-8.99225
▁fight	-8.9925
▁kodi	-8.99509
താണ്	-8.99537
ii	-8.99609
▁25	-8.99626
▁W	-8.99689
വിധ	-8.99725
ുകൾ	-8.99726
▁romanjam	-8.99953
5	-8.99954
▁ച	-9.00137
▁Film	-9.00167
ിലും	-9.00253
▁watch	-9.00257
▁ബട്ടൺ	-9.00259
▁ആശംസകളും	-9.00261
▁tamilnadu	-9.00261
▁ഒപ്പം	-9.00263
▁style	-9.0027
▁please	-9.00272
▁nights	-9.00274
▁ആരെങ്കിലും	-9.00309
▁Mammokka	-9.00313
▁Dialogue	-9.00334
▁ചിത്രം	-9.00341
▁director	-9.00432
▁nivin	-9.00458
▁എടുത്തു	-9.00508
▁Mammooka	-9.00552
just	-9.00559
▁kaanaan	-9.00782
▁ponnu	-9.00784
▁ചില	-9.0083
▁സുരാജ്	-9.00933
▁ollu	-9.00958
▁അച്ചായ	-9.00998
▁കോഴി	-9.01171
▁kazhinj	-9.01242
▁16	-9.01275
▁punch	-9.01453
em	-9.01553
▁urapp	-9.0169
▁അജയ	-9.01717
Hindi	-9.01797
view	-9.01848
es	-9.01884
▁Ittimani	-9.02389
ുക്ക്	-9.02401
hi	-9.02543
.........	-9.02544
▁chiri	-9.02593
ram	-9.02622
▁മമ്മൂക്കയുടെ	-9.02744
▁mamooka	-9.02788
it	-9.02918
▁നമ	-9.02967
▁w	-9.03002
▁enu	-9.03071
aaaa	-9.03156
▁cinima	-9.03396
▁ഇതിപ്പോ	-9.03513
▁ഊള	-9.03539
du	-9.03649
enkilum	-9.03743
▁Comment	-9.0375
▁ഓർമ്മ	-9.03762
▁ar	-9.03835
േം	-9.03927
▁karyam	-9.0394
▁pulimurugan	-9.03959
▁second	-9.03961
▁Rajuvettan	-9.04015
ichu	-9.04018
▁ആയിരുന്നു	-9.04032
ന്ന	-9.04061
▁സാറേ	-9.04065
▁300	-9.04143
▁സുരാജേട്ടൻ	-9.04194
▁അടിച്ചേ	-9.04226
▁theater	-9.0423
ങ്ങളും	-9.04269
▁ആദ്യം	-9.04278
▁Sir	-9.04428
വരുടെ	-9.04435
▁നിനക്ക	-9.04498
▁one	-9.04564
▁LUCIFER	-9.04585
▁adaar	-9.047
▁edit	-9.04733
ettan	-9.04934
ട്ട്	-9.05046
▁ho	-9.05075
▁🤩🤩	-9.05105
ാം	-9.05647
ിന്	-9.05737
▁വരുന്നു	-9.05836
▁അല്ലേ	-9.05888
▁aakan	-9.05934
▁കഴിഞ്ഞു	-9.05971
🤔	-9.06001
▁suraj	-9.06087
▁Etta	-9.06108
▁tovino	-9.06248
like	-9.06352
▁J	-9.06375
ane	-9.064
▁1:0	-9.06541
▁അത്ര	-9.06545
▁mu	-9.06598
▁padangal	-9.06868
▁varunnu	-9.06993
▁കണ്ണ	-9.07477
▁ch	-9.07594
▁nee	-9.07626
▁വി	-9.07761
▁wishes	-9.07808
▁തോന്നുന്നുണ്ടോ	-9.07815
▁Heavy	-9.07882
▁psycho	-9.07883
▁നിങ്ങളുടെ	-9.0792
▁pola	-9.07928
▁സംഭവം	-9.07928
▁Pakshe	-9.07977
▁sure	-9.07986
▁Kandu	-9.08047
▁thonnunnu	-9.08073
▁ആകും	-9.08075
▁ത്രില്ല	-9.0814
ഒരു	-9.08166
▁Trending	-9.08169
▁Mammootty	-9.08171
▁villain	-9.08215
▁kurach	-9.08259
athinu	-9.08357
▁arokke	-9.08484
▁നില	-9.08487
▁Vijay	-9.08511
ൊ	-9.08514
▁njangal	-9.08651
adi	-9.08734
▁ko	-9.09046
ാലും	-9.09291
▁dislikes	-9.09345
yo	-9.09429
▁ALL	-9.09442
▁Prithvi	-9.09442
▁Onn	-9.10057
▁ഞാന	-9.10195
ice	-9.1021
▁mani	-9.10222
alle	-9.10295
z	-9.10374
▁theatre	-9.10411
lu	-9.10422
om	-9.10618
▁thala	-9.10683
ndu	-9.10692
ay	-9.10732
yi	-9.10904
▁kannan	-9.10964
▁madhura	-9.11002
▁ഗ	-9.11024
▁Alla	-9.11074
▁ഏ	-9.11162
▁piller	-9.11222
ച്ച്	-9.11238
▁ഇട്ടിച്ചായ	-9.11351
▁ille	-9.11357
chu	-9.11553
▁ഗീതു	-9.11643
’	-9.11805
▁delivery	-9.11805
▁combo	-9.11807
▁ട്രൈലർ	-9.11812
▁set	-9.11814
▁ആകട്ടെ	-9.11821
▁always	-9.11829
▁Marana	-9.11836
▁ആവട്ടെ	-9.11841
▁ഉറപ്പ്	-9.11872
▁theatril	-9.11924
▁വേഷം	-9.1198
▁Karnataka	-9.11984
▁doub	-9.12003
▁പൊട്ടും	-9.12004
▁thonniyavar	-9.12058
▁Brother	-9.12076
▁soubin	-9.12084
▁ore	-9.12086
▁mas	-9.12098
▁IS	-9.12099
▁നായകൻ	-9.12123
▁cinemayude	-9.12212
yil	-9.12214
▁prithvi	-9.12236
▁രാജുവേട്ട	-9.12258
▁inte	-9.12289
▁Gopi	-9.12577
▁angane	-9.12592
▁ill	-9.12604
▁illatha	-9.12673
▁cinemayil	-9.12886
▁Anna	-9.12952
🥰	-9.1297
ണ്ട	-9.13013
▁ബാക്കി	-9.13034
▁എല്ലാവരു	-9.1318
രി	-9.13283
OR	-9.1349
B	-9.13592
▁നന്നായി	-9.1361
▁nammad	-9.13622
▁!!!	-9.13679
▁kanum	-9.13882
▁view	-9.13915
▁illaa	-9.14001
se	-9.14135
▁vera	-9.14168
▁paray	-9.14237
▁ല	-9.14334
▁vijay	-9.14441
ിക്കുന്നു	-9.14533
tu	-9.14697
ത്ത	-9.14724
▁പറയ	-9.14859
▁keri	-9.14999
▁ann	-9.15093
▁Mr	-9.15173
po	-9.1518
▁th	-9.15227
tt	-9.15321
el	-9.15496
▁Vineeth	-9.15681
▁പണി	-9.15749
ga	-9.15824
▁plz	-9.15954
▁തൃശൂർ	-9.15972
▁തരുമോ	-9.15974
▁സൂപ്പർസ്റ്റാർ	-9.15975
▁ഒരാളല്ല	-9.15977
▁ചേട്ടാ	-9.16007
▁script	-9.16007
▁dance	-9.16016
▁Innu	-9.16029
▁പിള്ളേരും	-9.16049
sukumaran	-9.16054
▁ettavum	-9.16058
രം	-9.16122
▁munne	-9.16135
▁SHYLOCK	-9.16157
▁എബ്രിഡ്	-9.1616
▁kidilam	-9.16176
▁hard	-9.16263
▁aanenn	-9.16341
▁link	-9.16389
▁seen	-9.16415
aft	-9.1645
▁Ithil	-9.16468
▁വഴി	-9.16506
▁എല്ലാവര	-9.1658
▁Vera	-9.16662
uu	-9.16684
trailer	-9.1669
▁ചാക്കോച്ച	-9.16697
▁kande	-9.16766
ക്കാനുള്ള	-9.16866
▁india	-9.16907
▁ഇതി	-9.16924
നി	-9.17031
▁ഉം	-9.17112
▁സൈക്കോ	-9.17238
no	-9.17286
▁On	-9.17319
▁pokunna	-9.17406
▁ennum	-9.17424
3	-9.17566
▁kuru	-9.17679
▁tanne	-9.17727
▁off	-9.17752
aayi	-9.17876
▁???	-9.18008
േലും	-9.18137
▁ayirikkum	-9.18175
ngal	-9.18393
▁nokan	-9.18434
▁ഷ	-9.18458
▁dialog	-9.18672
▁ariyam	-9.18741
▁ha	-9.18902
▁നിന്നു	-9.18957
മാ	-9.19045
▁kandapol	-9.19047
▁വല്ല	-9.19063
▁നിങ്ങള	-9.19119
ante	-9.1927
▁vazhi	-9.19337
▁kandath	-9.19662
▁eduthu	-9.19943
▁ithra	-9.19988
യം	-9.19997
&	-9.20021
▁കൊടുത്ത	-9.2016
▁The	-9.20211
▁rekshayum	-9.20292
▁വാ	-9.20294
▁ശക്തമായ	-9.2032
▁voice	-9.20321
▁hindi	-9.20327
▁ഡയറക്ടർ	-9.2033
▁Hollywood	-9.20354
▁kgf	-9.20358
▁surajettan	-9.20371
▁ellarum	-9.20408
▁അഞ്ചാം	-9.20429
▁അറിയാൻ	-9.20442
▁thonunnu	-9.20453
▁ജോസ്	-9.20482
▁kandathinu	-9.20519
▁ചരിത്രം	-9.20526
▁വിനീത്	-9.20534
▁നല്ലൊരു	-9.20577
▁എങ്ങനെ	-9.2058
▁over	-9.20582
ano	-9.20608
▁പോകും	-9.20614
▁ejjathi	-9.20632
▁youtube	-9.20638
▁Any	-9.20642
▁@	-9.20741
▁അമ്മ	-9.20785
▁കാര്യം	-9.2084
▁കാത്തിരിക്കുന്ന	-9.20849
▁വേണ്ട	-9.20918
▁മവനെ	-9.20944
old	-9.20992
nde	-9.21002
▁Nte	-9.21027
ട്ട	-9.21073
▁comments	-9.21079
li	-9.2108
ki	-9.21113
▁comp	-9.21136
▁trip	-9.21214
▁നൈല	-9.21224
▁av	-9.21225
▁paranj	-9.21232
mathiri	-9.21279
unnavar	-9.21408
▁real	-9.21684
mm	-9.21858
unna	-9.21881
atha	-9.21919
വരെ	-9.21963
waiting	-9.22064
▁flop	-9.22088
eyum	-9.22186
▁aanallo	-9.22278
annu	-9.22394
കളുടെ	-9.22528
million	-9.22544
und	-9.22734
▁കാണുന്ന	-9.22759
▁pad	-9.22833
▁കാണിച്ചു	-9.22848
rs	-9.23117
bi	-9.23117
▁cha	-9.23162
▁khan	-9.23168
ൺ	-9.23168
▁ഞാനു	-9.23222
ാണോ	-9.23284
esham	-9.23424
▁ve	-9.2344
▁Peru	-9.23782
▁എവിടെ	-9.23835
rum	-9.23843
▁ന്	-9.23882
തിൽ	-9.23882
▁entho	-9.23889
▁La	-9.2399
▁kitti	-9.24002
തി	-9.24035
▁pokum	-9.24075
ennullavar	-9.24094
▁rakshayumilla	-9.24098
▁Ka	-9.24125
▁ആദ്യ	-9.24147
▁പോയ	-9.24208
▁......	-9.24267
AM	-9.24328
▁തോന്നി	-9.24429
▁Enth	-9.24446
▁ikkaa	-9.24461
ൻറെ	-9.24524
▁dub	-9.24657
ey	-9.24672
▁കിളി	-9.24819
▁വെറൈറ്റി	-9.24865
▁sunny	-9.24867
▁remake	-9.24868
▁മുഴുവൻ	-9.24871
▁mathiyayirunnu	-9.24871
▁ഉണ്ടല്ലോ	-9.24897
▁hang	-9.24907
▁കലക്കും	-9.24919
▁superstar	-9.24926
ter	-9.2495
▁രക്ഷയുമില്ല	-9.24957
▁മോനെ	-9.24968
▁പവർ	-9.24996
▁Soubin	-9.25009
ck	-9.25058
▁Joju	-9.25074
▁പകരം	-9.25078
▁superb	-9.25143
▁oola	-9.25164
▁ഇതൊരു	-9.25202
▁150	-9.25259
പോലെ	-9.25298
▁ഒന്നിൽ	-9.25315
▁idh	-9.25465
ad	-9.25479
▁Ikkayude	-9.25515
▁കാലം	-9.25532
▁muthal	-9.25535
▁#1	-9.25587
ugs	-9.25655
▁2.	-9.25792
ുണ്ട്	-9.25876
ala	-9.2607
▁1.	-9.26102
▁ടൈ	-9.26475
▁sha	-9.26606
▁ഇത്രയ	-9.26711
യിലെ	-9.26746
▁കു	-9.26787
ഈ	-9.26817
▁kanunnavar	-9.26918
▁athra	-9.26971
▁ver	-9.27068
▁Mech	-9.27198
ana	-9.27401
▁van	-9.27455
ങ്കിലും	-9.27523
▁Pakka	-9.27587
▁vech	-9.2765
umbol	-9.27801
ss	-9.27857
/	-9.27941
▁Pa	-9.28043
▁Surajettan	-9.28061
▁st	-9.28214
ട്ടെ	-9.2822
▁അതു	-9.28293
▁രണ്ടു	-9.28424
ith	-9.28512
by	-9.28559
avane	-9.2863
▁maha	-9.2864
▁randu	-9.28712
ായിരുന്നു	-9.28737
rukh	-9.28817
▁aanen	-9.28983
nne	-9.29137
▁സിനിമാ	-9.29163
▁അതിനു	-9.29263
Indian	-9.29276
▁ഐ	-9.29529
▁manasilayi	-9.29615
▁<3	-9.29627
▁karnataka	-9.29627
▁മിഥുൻ	-9.29627
▁TRAILER	-9.29627
▁effect	-9.2963
▁family	-9.29632
▁swantham	-9.29636
▁നേരുന്നു	-9.29637
▁ചെയ്യുക	-9.29643
▁Madhuraraja	-9.29646
▁മറ്റൊരു	-9.2965
▁മാർഗം	-9.29658
▁shine	-9.29679
▁500	-9.29707
▁ആഹാ	-9.29707
▁അഭിപ്രായം	-9.29742
▁only	-9.29792
▁aay	-9.29798
▁munb	-9.29811
▁ചെയ്യൂ	-9.29814
▁പറഞ്ഞത്	-9.29825
▁urapullavar	-9.29829
▁എന്താണ്	-9.29839
▁വെറുതെ	-9.29847
▁traileril	-9.29859
▁kodukk	-9.29879
▁ആക്ഷൻ	-9.29891
▁thane	-9.29897
nce	-9.3005
ര്‍	-9.3006
▁pattu	-9.30128
▁കിട്ടിയ	-9.30194
▁Chechi	-9.30196
▁pillerum	-9.30215
▁ചെമ്പൻ	-9.30394
ണ	-9.30451
▁അവ	-9.30483
▁28	-9.30564
yilla	-9.30611
6	-9.30647
▁അവാർഡ	-9.30712
▁Anu	-9.30868
▁അവസ്ഥ	-9.30869
onnu	-9.3106
▁kaanu	-9.31095
▁bhai	-9.31113
▁late	-9.31147
▁പറ്റിയ	-9.31279
kam	-9.31279
യാ	-9.31354
▁കേറി	-9.31649
nnum	-9.31665
▁kanditu	-9.31701
ull	-9.31809
ullavar	-9.31811
ai	-9.31853
▁ഇങ്ങ	-9.31923
▁പോര	-9.31976
varum	-9.31978
ുന്നത്	-9.3215
▁Dileep	-9.32163
▁പറയുന്ന	-9.32288
nnavar	-9.32323
hu	-9.32352
▁ijjathi	-9.32432
▁cheyu	-9.32481
▁വൻ	-9.32534
▁ഇതിലെ	-9.32553
undo	-9.32655
▁🤔🤔🤔	-9.32719
▁kittum	-9.32761
▁vannath	-9.32847
▁cheyyunnavar	-9.33098
▁ane	-9.33283
▁മെഗാസ്റ്റാ	-9.33392
▁അഭിനയിച്ച	-9.33413
▁unde	-9.33577
navar	-9.33724
▁urappu	-9.33785
▁ah	-9.33922
ങ്	-9.34135
▁Fahad	-9.34149
▁age	-9.34416
▁Ippo	-9.34418
▁we	-9.34483
▁dis	-9.34492
▁madura	-9.3454
▁ബിജിഎം	-9.34627
▁version	-9.34627
▁പ്ലീസ്	-9.34628
▁haters	-9.3463
▁viewers	-9.34634
▁Kottayam	-9.34638
▁സ്ഥലം	-9.34639
▁Pls	-9.3466
▁തകർത്തു	-9.34668
▁മാമ്പഴം	-9.34682
▁divasam	-9.34687
▁ഏട്ടാ	-9.34757
▁മനസ്സിൽ	-9.34786
▁പൊന്നു	-9.34798
▁Antony	-9.34806
▁Boss	-9.34848
ബ്	-9.3488
gal	-9.34971
▁ഉള്ളത്	-9.35017
est	-9.35069
ില്‍	-9.35079
anallo	-9.35087
▁കള്ള	-9.35149
▁poya	-9.35152
▁ഇക്കയുടെ	-9.35214
▁mo	-9.35215
▁WAITING	-9.3522
▁എനർജി	-9.35233
▁:-	-9.35251
▁srk	-9.35262
▁malayalathil	-9.35337
റ്റ	-9.35372
▁മ്മ	-9.35417
▁🥰🥰	-9.35466
ik	-9.35524
ട	-9.35529
▁ആവ	-9.35551
▁days	-9.35552
▁Mamooka	-9.35642
ppan	-9.35696
▁kanam	-9.35696
pa	-9.35734
▁kollama	-9.35771
▁Entha	-9.35772
dha	-9.35774
▁ഉറപ്പായി	-9.35852
ember	-9.35911
▁idu	-9.36012
ഷൻ	-9.36044
▁ഓണത്തിന്	-9.36052
▁eni	-9.36157
▁kude	-9.36175
▁ഡേ	-9.36186
▁Enik	-9.36188
▁Sa	-9.36209
▁അത	-9.36213
▁കാല	-9.36225
▁adikkum	-9.36466
appo	-9.36554
▁മാറ്റി	-9.36585
ംഗ്	-9.36625
▁die	-9.36653
use	-9.36723
ാനുള്ള	-9.36723
▁പ്ര	-9.36804
▁pol	-9.36858
ളും	-9.36972
▁sam	-9.36984
ിനി	-9.37096
▁രക്ഷ	-9.37188
Lucifer	-9.37322
▁ഹോ	-9.37327
▁kando	-9.37405
RU	-9.3751
ലോ	-9.37533
▁adikan	-9.37606
▁chunk	-9.37643
▁pratheeksha	-9.37927
on	-9.37931
▁pidi	-9.38111
Lalettan	-9.38235
▁Kur	-9.38313
▁aayitt	-9.38338
enkil	-9.38546
▁cheyy	-9.38665
▁shylock	-9.39016
▁ആർക്ക	-9.3912
ale	-9.39234
ക്കണം	-9.3932
▁maari	-9.39343
▁പൊന്ന	-9.39488
▁bro	-9.39664
രുത്	-9.39741
▁Na	-9.39742
yy	-9.39865
▁ഇഷ്ടപ്പെട്ട	-9.39867
▁പറയാനില്ല	-9.39892
▁ദൈവമേ	-9.39892
▁Sunny	-9.39892
▁സീരിയ	-9.39893
▁entry	-9.39895
▁number	-9.39903
▁മുതൽ	-9.39924
▁joju	-9.39937
▁വാസുദേവ്	-9.39954
▁present	-9.39958
▁BROTHER	-9.3997
▁ചിരിച്ചു	-9.39977
▁കഥാപാത്രം	-9.3998
CE	-9.39987
▁പടവും	-9.39992
▁പടത്തിൽ	-9.40066
▁vattam	-9.40082
▁editing	-9.40082
▁thonnunu	-9.40098
▁അറിയാം	-9.40106
▁Ijjathi	-9.40122
▁ലാലേട്ടന്റെയും	-9.40123
▁great	-9.40123
▁chechiye	-9.4017
▁samaya	-9.40184
▁15	-9.40204
▁വാര്യർ	-9.40215
▁ഇമ്മ	-9.4025
▁eniku	-9.40258
▁still	-9.40271
▁കൈ	-9.40291
▁kazhinju	-9.40328
▁Megastar	-9.40389
▁കാണിച്ച	-9.40438
▁ഓഫ	-9.40459
▁chali	-9.40473
▁hai	-9.40589
▁vaa	-9.40601
▁mikka	-9.40717
▁nigal	-9.40772
▁ennalum	-9.40898
etta	-9.40932
▁ikkayude	-9.40937
ak	-9.41047
thum	-9.4107
▁നി	-9.41142
▁Ennu	-9.41294
dy	-9.41343
▁പിന്ന	-9.41456
ente	-9.41499
▁എടുത്ത	-9.4162
ayirunnu	-9.41651
▁gopi	-9.4167
ിലേക്ക്	-9.41682
????	-9.41951
▁1:2	-9.41953
▁idi	-9.42213
vi	-9.42266
▁അന്ന	-9.42375
▁Da	-9.425
▁chetta	-9.42531
▁evde	-9.42621
ittu	-9.42627
തിന്റെ	-9.42668
യായി	-9.42722
thiri	-9.4278
▁can	-9.42956
▁class	-9.43196
▁pulli	-9.43438
▁al	-9.43489
യേ	-9.43508
ല്‍	-9.43649
ടി	-9.43677
▁yil	-9.43682
▁nall	-9.43683
ty	-9.43694
ിക്കാൻ	-9.43711
▁11	-9.43776
▁🤣🤣🤣	-9.43865
ത്തിലെ	-9.4394
▁ചേട്ട	-9.44007
▁kanunna	-9.44012
ത്തോടെ	-9.44085
▁Ulla	-9.44362
ting	-9.44376
▁laletan	-9.44386
വ്	-9.44421
enn	-9.44538
▁aayo	-9.44627
▁te	-9.44652
▁ഫാൻസിന്	-9.44672
▁ഇട്ട	-9.44736
ങ്കിൽ	-9.44779
▁പിള്ളേർ	-9.44791
▁ingal	-9.44944
dhu	-9.45036
▁ariy	-9.45106
▁roy	-9.45214
മ്മ	-9.45223
▁ഇതുപോല	-9.45256
ikal	-9.45373
▁സാമ്പിൾ	-9.45446
▁locked	-9.45446
▁ഹെവി	-9.45447
GF	-9.45449
▁HIT	-9.45454
▁നീയൊക്കെ	-9.45456
▁Srk	-9.4546
▁up	-9.45461
▁Shah	-9.45467
▁തിയേറ്ററിൽ	-9.45469
▁ഫഹദിക്ക	-9.45469
▁copy	-9.45469
▁words	-9.45475
▁much	-9.45475
▁രവി	-9.45477
▁pakaram	-9.45492
▁അഭിനയിക്കാൻ	-9.455
▁എവിടെയോ	-9.45501
llavarum	-9.45502
▁minutes	-9.45545
▁language	-9.4555
ham	-9.45555
▁Nice	-9.4562
▁kaaryam	-9.45621
▁pala	-9.45635
▁ചാക്കോച്ചൻ	-9.45654
▁എന്റമ്മോ	-9.45699
▁Shane	-9.45716
▁കിടുക്കി	-9.4585
▁mele	-9.45871
▁രാജുവേട്ടന	-9.45882
▁with	-9.4589
▁makkal	-9.45936
▁car	-9.45937
▁j	-9.45948
▁mode	-9.45994
▁കണ്ടത്	-9.46005
▁എല്ലാരും	-9.46008
▁ninte	-9.46118
▁onnonn	-9.46209
▁നോക്ക്	-9.46252
▁megastar	-9.46253
▁g	-9.46392
▁Royal	-9.46437
▁pra	-9.46575
ippo	-9.46618
us	-9.4667
ിയുടെ	-9.46712
▁thanna	-9.46724
ില്ലേ	-9.4677
anulla	-9.46786
▁pat	-9.46839
▁kaanum	-9.46846
▁slang	-9.47021
ri	-9.47054
van	-9.47065
arum	-9.47086
ള്‍	-9.47156
▁വിധ	-9.47202
▁വെ	-9.47231
▁see	-9.47238
▁Un	-9.47317
ingalu	-9.47544
▁പൊട്ട	-9.47546
ാണെന്ന്	-9.47662
▁തന്ന	-9.47805
▁aaan	-9.47818
▁matt	-9.47948
ജ	-9.47995
▁record	-9.48211
▁Polichu	-9.48229
▁nannayi	-9.48418
ിട്ടില്ല	-9.48424
T	-9.48477
▁മണി	-9.4849
▁ശ	-9.48598
യാൽ	-9.48616
pinne	-9.48814
▁inn	-9.48879
▁fa	-9.4896
▁kood	-9.49008
▁muthe	-9.4903
raja	-9.49174
▁ഉഷ	-9.49175
iii	-9.4936
▁Y	-9.49388
▁anenn	-9.49441
ിക്ക്	-9.49526
AN	-9.49558
▁not	-9.49563
▁ed	-9.49603
▁ദി	-9.49794
▁than	-9.49813
ക്കു	-9.4987
▁ethil	-9.49921
▁അസുര	-9.49929
▁ദേ	-9.49942
▁തിരിച്ച	-9.4995
▁പിടിച്ച	-9.50075
▁ഒര	-9.501
▁Pi	-9.5015
▁Ho	-9.50199
▁ആക്കി	-9.50213
▁ചാനല	-9.50354
ുമായി	-9.50397
ral	-9.50445
▁രൂപ	-9.50573
▁adichavar	-9.50721
▁ഉണ്ടെങ്കി	-9.50762
സും	-9.51038
▁office	-9.51313
▁Climax	-9.51328
▁MOHANLAL	-9.51328
▁SRK	-9.51328
▁ലേഡി	-9.51329
▁മതിയായിരുന്നു	-9.51333
▁Abrid	-9.51333
▁fdfs	-9.51335
▁ചെയ്യാമോ	-9.51349
▁YouTube	-9.5135
▁share	-9.51356
▁മൂത്തോൻ	-9.51385
▁ഇല്ലാത്ത	-9.51397
▁വിനോദ്	-9.51399
▁puthiya	-9.514
▁Nov	-9.51403
▁Ivide	-9.51411
▁ആരൊക്കെ	-9.51413
▁തോന്നിയവർ	-9.5142
▁climax	-9.51437
▁വന്നവരുണ്ടോ	-9.51451
▁margam	-9.51463
▁വെടിക്കെട്ട്	-9.51467
▁എന്തൊരു	-9.51473
▁കമെന്റ്	-9.51479
▁njaan	-9.51483
▁തര	-9.51515
▁Kollam	-9.51521
ver	-9.51537
▁box	-9.51589
▁നോക്ക	-9.51595
▁Ufff	-9.51602
▁മറിയം	-9.51619
▁മുമ്പ	-9.51629
▁kanichu	-9.51631
▁thirichu	-9.51637
▁കിട്ടും	-9.51656
▁തൊട്ട	-9.51701
mar	-9.51813
▁നോക്കി	-9.51825
ayam	-9.51875
ti	-9.51913
▁കേരള	-9.5195
▁padathin	-9.51971
▁ലാൽ	-9.52008
▁vidamatte	-9.52051
▁IKKA	-9.52068
▁hyp	-9.52138
iyum	-9.52173
ppam	-9.52176
▁പറ്റുമെന്ന	-9.52197
രണം	-9.5222
🤗	-9.52233
▁kal	-9.52275
▁🤩🤩🤩	-9.52312
▁undel	-9.52327
▁mika	-9.52552
▁tho	-9.52617
vo	-9.52687
▁മൂ	-9.52772
▁സൗണ്ട	-9.52777
▁🤔🤔	-9.52791
▁ponne	-9.52792
▁Ann	-9.52795
▁kana	-9.52942
▁jo	-9.52946
▁athe	-9.52958
lle	-9.53028
▁🤘	-9.53031
▁manasil	-9.53052
റി	-9.53139
▁god	-9.53178
▁pokan	-9.53248
ple	-9.53279
▁aaanu	-9.53301
▁ട്ര	-9.53324
▁avum	-9.53352
പ്പ	-9.53403
▁pand	-9.53413
▁poo	-9.5344
▁Lad	-9.5359
▁പറയാ	-9.53593
▁varunu	-9.53601
▁വരും	-9.53713
▁ലാലേട്ടന	-9.53755
▁സിനിമയും	-9.53807
▁otta	-9.53896
ത്തിന്	-9.53919
▁ku	-9.53955
▁പിടി	-9.54019
▁motha	-9.54063
do	-9.54098
▁പറ്റു	-9.5411
▁cheriy	-9.5411
▁su	-9.54139
▁ഹാ	-9.54148
▁താഴെ	-9.54179
▁nokku	-9.54322
▁ഹിന്ദി	-9.54393
itt	-9.54448
▁മനസിലായി	-9.54594
one	-9.54621
▁odi	-9.54724
▁സ്വ	-9.54751
ഗ	-9.54764
▁varav	-9.5487
▁kudi	-9.54911
▁mari	-9.55106
▁ettanum	-9.5516
Onam	-9.55235
▁കേൾക്ക	-9.55272
▁raj	-9.55386
▁addi	-9.5543
▁രക്ഷയു	-9.55449
U	-9.5549
▁സിനിമയ	-9.5555
▁Appo	-9.55639
ന	-9.55806
oke	-9.55869
ann	-9.55994
▁varunna	-9.56084
▁ayal	-9.56182
▁enta	-9.56219
ING	-9.56288
▁pwolichu	-9.56306
ിങ്	-9.56317
▁annan	-9.56317
▁inu	-9.56549
ക്ക	-9.56554
▁kaan	-9.56612
൦	-9.5663
▁potti	-9.56798
▁ketto	-9.56808
vam	-9.56886
▁njanga	-9.57004
▁padathinu	-9.57132
്യം	-9.57162
▁adiku	-9.57164
▁Traileril	-9.5721
▁films	-9.57267
▁our	-9.57289
▁cheyth	-9.57305
▁മുൻപ	-9.5734
▁oral	-9.57345
▁boss	-9.57496
▁നായിക	-9.57574
▁MOVIE	-9.57578
▁Title	-9.57578
▁english	-9.57578
▁എന്ത	-9.57597
▁ഇന്നലെ	-9.576
▁കഴിയൂ	-9.57605
▁ബോക്സ്	-9.5761
▁award	-9.57617
▁Jayasurya	-9.57618
▁സംവിധായകൻ	-9.57628
▁Kanditt	-9.5763
▁പോലീസ്	-9.57634
▁jose	-9.57641
▁കോട്ടയം	-9.57644
▁രീതി	-9.5765
▁negativ	-9.57661
▁സാർ	-9.57662
▁pattilla	-9.57676
▁പ്രതികാര	-9.57699
▁ready	-9.57719
▁kanji	-9.57723
▁bakki	-9.5774
▁thrill	-9.57803
▁aayirikum	-9.57831
▁പൂരം	-9.57851
▁Abraham	-9.57851
▁വരുന്നത്	-9.5787
▁ayo	-9.57889
ates	-9.57968
vare	-9.57969
▁അതോ	-9.58045
ttan	-9.58048
▁പ്രിയ	-9.58071
യൊക്കെ	-9.58082
happy	-9.58146
▁that	-9.58167
▁കലക്കി	-9.58183
▁kananam	-9.58376
Murali	-9.58388
▁crore	-9.58521
▁മലയാളികൾ	-9.58546
▁സർ	-9.5859
▁ba	-9.58694
▁മഹാ	-9.58741
ical	-9.58763
▁വെറു	-9.58782
▁ittimani	-9.58805
▁ചെയ്യും	-9.58816
▁aayirunnu	-9.58864
▁പടത്തിനു	-9.58907
▁aavatte	-9.58928
▁aayalum	-9.58986
▁innum	-9.59018
ഷ്	-9.59107
▁പെണ്ണ	-9.59123
▁India	-9.5924
▁parayunna	-9.59273
▁vedi	-9.5952
▁ഇട്ടിച്ചൻ	-9.59594
▁മാ	-9.59614
aaaaa	-9.59661
മായ	-9.59684
▁x	-9.59723
▁എടുക്കുവാ	-9.59811
▁pwolikum	-9.59835
▁ro	-9.59841
നു	-9.60049
▁cheyyunna	-9.60169
▁ആണ	-9.60224
▁pattiya	-9.6033
▁cheytha	-9.60357
gam	-9.60442
han	-9.60516
▁ഇട്ടിച്ച	-9.60554
▁make	-9.60589
▁kku	-9.60628
▁Rajuettan	-9.60823
▁അതി	-9.60826
▁katha	-9.60862
▁poster	-9.60924
▁pere	-9.60966
▁വിട്ട	-9.61003
▁0:	-9.61108
▁chan	-9.61112
▁മരക്കാര	-9.6114
▁Ath	-9.61157
▁പോകുന്ന	-9.61196
▁0:5	-9.61325
oooo	-9.61329
▁Va	-9.61412
▁aduthu	-9.61625
▁marakkar	-9.61632
▁mega	-9.61764
shylock	-9.61766
▁മാസ	-9.61768
FDFS	-9.61792
unnu	-9.6193
manju	-9.61936
▁പരി	-9.61965
േട്ടൻ	-9.6202
ni	-9.62024
▁24	-9.62056
▁14	-9.62112
▁കഴിവ	-9.62115
gan	-9.62189
mass	-9.62253
▁min	-9.62402
ത്ത്	-9.62418
mo	-9.62437
▁ഫാമിലി	-9.62621
▁bor	-9.62661
angal	-9.62712
▁താ	-9.62814
▁thank	-9.62816
ിനെ	-9.62889
▁ഇതാ	-9.62913
me	-9.63136
▁വെറ	-9.63204
c	-9.6334
ട്	-9.63446
kke	-9.63516
നായി	-9.63983
▁Video	-9.64016
രെ	-9.64065
▁അട	-9.64142
00	-9.64165
sam	-9.64167
▁ആരാണ	-9.64177
▁Kanan	-9.64197
ಿ	-9.64245
▁Music	-9.64245
▁ഹോളിവുഡ	-9.64245
▁•	-9.64245
▁Kali	-9.64246
▁മക്കളേ	-9.64248
▁പ്രായത്തിലും	-9.64248
▁Sushin	-9.64249
▁Tamilnadu	-9.64253
▁369	-9.64255
▁lalettaaa	-9.64256
▁kunjali	-9.64259
▁സംഭാഷണം	-9.64261
▁കണ്ടതിനു	-9.6427
▁qualit	-9.64276
▁valya	-9.64287
▁New	-9.64294
▁Kumbalangi	-9.64297
▁Kidilan	-9.64306
▁nayakan	-9.64327
▁Item	-9.64336
▁ആണെങ്കിൽ	-9.64353
▁ഭയങ്കര	-9.64365
▁sreenivasan	-9.64367
▁വിളയാട	-9.64369
▁തകർക്കും	-9.64372
▁coming	-9.64373
▁madhuraraja	-9.64379
▁മോശം	-9.64418
▁kili	-9.64418
▁mosham	-9.64421
▁അങ്ങോട്ട്	-9.6445
▁padathinte	-9.64486
▁മമ്മുക്കയുടെ	-9.64506
▁lu	-9.64513
▁mamooty	-9.64526
ോൺ	-9.64532
ഫുൾ	-9.6454
▁പോരെ	-9.64564
▁തന്നെയാണ്	-9.64566
▁unni	-9.64569
▁bha	-9.64611
▁എന്നൊരു	-9.64619
▁പാതിരാ	-9.64687
▁അതിന്റെ	-9.64687
▁നിങ്ങൾക്ക്	-9.6469
▁BEST	-9.64701
▁Mega	-9.64763
▁istam	-9.64769
▁Die	-9.64785
▁കൊടുക്ക്	-9.64811
Joshy	-9.64823
▁Pulimurugan	-9.6484
▁ufff	-9.64885
▁സ്റ്റാർ	-9.64916
▁eduth	-9.64934
▁നമ്മ	-9.64946
▁കാത്തിരുന്ന	-9.64975
▁munp	-9.65015
▁BIG	-9.65032
▁ശരിക്കു	-9.65097
▁nila	-9.65099
▁ലാസ്റ്റ	-9.65112
▁എന്നാണ്	-9.65153
▁Oh	-9.65202
▁നല്ലത്	-9.65203
▁pidich	-9.65306
alam	-9.65328
▁ഏട്ടന	-9.65371
ATTA	-9.65548
▁27	-9.65573
▁പേർ	-9.65663
ീസ്	-9.65712
▁Enne	-9.65757
ഹ	-9.65787
▁engana	-9.65829
▁he	-9.65867
▁And	-9.65973
ക്കുന്നത്	-9.66093
▁1:5	-9.66095
aano	-9.6613
ini	-9.66157
▁തീര	-9.66165
▁ON	-9.66227
▁നേര	-9.66319
▁ikkaaa	-9.66368
▁Dri	-9.66434
▁Ver	-9.66518
ow	-9.66533
ാനും	-9.66636
▁cheyyum	-9.66714
▁Kanda	-9.66915
▁പ്രി	-9.66969
eeee	-9.67027
▁Vanna	-9.67032
kka	-9.67053
man	-9.67092
lete	-9.67118
▁ലിങ്ക	-9.67235
▁അതെ	-9.67236
▁തീ	-9.67285
▁എത്ത	-9.67309
വൻ	-9.67311
▁സ്വാസിക	-9.67423
▁njngal	-9.67427
▁enthu	-9.67476
ത്തു	-9.675
▁kid	-9.67541
▁Khan	-9.67546
undenkil	-9.67602
ഗ്ര	-9.6777
yal	-9.67779
▁സിനിമയെ	-9.67794
▁Madura	-9.67798
ttu	-9.67813
▁ആകെ	-9.67983
▁പല	-9.68018
▁id	-9.68053
യുള്ള	-9.68082
▁ചങ്ക	-9.68202
irunnu	-9.68478
▁anno	-9.6848
▁കണ്ടിട്ടു	-9.68554
aram	-9.68601
▁kandapo	-9.68704
▁poy	-9.68974
▁വേ	-9.6901
▁സു	-9.69063
▁ഇസ്	-9.6914
▁kolam	-9.69145
ge	-9.69173
▁LOVE	-9.6919
▁kar	-9.69218
▁kanumbo	-9.69301
kki	-9.69316
and	-9.6952
▁ക്ഷ	-9.69579
▁ദിലീപ	-9.69611
▁lik	-9.69686
reat	-9.70094
▁nal	-9.70121
nalla	-9.70208
▁ഞങ്ങള	-9.70229
തു	-9.70249
ിലൂടെ	-9.70336
▁collect	-9.70433
▁oo	-9.70679
▁aar	-9.70754
ുമെന്ന്	-9.70809
▁അമിത	-9.70818
rem	-9.70889
▁നീല	-9.71027
▁22	-9.71071
▁ഇറങ്ങിയ	-9.71173
▁poliya	-9.7118
▁kazhiy	-9.71201
▁club	-9.71266
▁കാണിക്കുന്ന	-9.71335
age	-9.71347
▁Fdfs	-9.71388
▁blockbuster	-9.71388
▁കരീബിയൻ	-9.71388
▁ജോസഫ്	-9.71389
▁ഇരിക്കട്ടെ	-9.7139
▁ഭായ്	-9.71392
▁apo	-9.71392
▁കമോൺ	-9.71399
▁promising	-9.71409
▁parayaan	-9.71409
▁vismayam	-9.71418
▁അടിക്കുക	-9.71432
▁പക്കാ	-9.71433
▁ആൻഡ്	-9.71435
▁face	-9.71444
Box	-9.71461
▁സിദ്ദിഖ്	-9.71462
▁Njn	-9.71476
▁കിടിലം	-9.71479
▁തോനുന്നു	-9.71488
▁thakarkkum	-9.7149
▁ഉള്ളൂ	-9.71499
▁change	-9.7151
▁samshayam	-9.71511
▁stephen	-9.71517
▁telugu	-9.71528
▁ആവോ	-9.71538
▁സമയം	-9.71544
▁ലൈസൻസ്	-9.71565
nnalum	-9.7157
▁nilayil	-9.71576
ady	-9.71585
▁mollywood	-9.71611
▁പറയുന്നത്	-9.71613
▁KING	-9.7162
!!!!!	-9.71623
▁ശൈലി	-9.71657
▁ചെയ്യോ	-9.71683
▁പാട്ട്	-9.71718
▁mohan	-9.7172
▁ഒടിയൻ	-9.71729
▁രാജാവ്	-9.71765
▁koduth	-9.71778
▁എന്നൊക്കെ	-9.71792
▁aavo	-9.71797
▁mammoka	-9.71833
F	-9.7185
▁Athu	-9.71853
▁varunnavar	-9.71934
▁19	-9.72048
▁ആടാ	-9.72058
▁ഡാ	-9.72101
▁You	-9.72108
▁laalettan	-9.72145
▁main	-9.72152
▁edh	-9.72163
▁മുൻപ്	-9.72184
▁മലയാളത്തി	-9.72199
od	-9.72276
▁ഉള്ളു	-9.72333
ള	-9.72338
▁cheythu	-9.72344
ിയ	-9.72347
▁mat	-9.72358
▁കുറിച്ച	-9.72405
▁karanam	-9.72409
▁അറിഞ്ഞ	-9.72418
▁trailar	-9.72429
▁naduvi	-9.72521
ayum	-9.72528
▁Dail	-9.72539
▁പുള്ളി	-9.72547
▁charithram	-9.72559
▁ket	-9.72571
star	-9.72641
▁ellaa	-9.72708
ഷ	-9.72797
tan	-9.72806
ട്ടാള	-9.72947
▁kozhi	-9.72999
രു	-9.7305
▁മാമാങ്കത്തിൽ	-9.73072
is	-9.73192
▁0:4	-9.73215
ൊന്ന	-9.73236
yan	-9.7332
▁Ku	-9.73405
▁കിട	-9.73512
ite	-9.73547
മാസ്സ്	-9.73611
▁മലയാളത്തില	-9.73789
▁Ha	-9.73819
▁Ettante	-9.73908
ങ്ങ	-9.73921
▁patt	-9.73938
inta	-9.73969
▁dialogues	-9.74018
▁ner	-9.74043
▁dileep	-9.74076
▁Lint	-9.7411
ളി	-9.74143
▁aanennu	-9.74215
▁മലയാളി	-9.74224
▁യു	-9.74373
▁polikk	-9.74401
▁കാണുക	-9.74419
▁ഇങ്ങന	-9.74459
▁അതുകൊണ്ട	-9.74465
▁ഭാസി	-9.74474
ർക്ക്	-9.74541
▁ഫിലിമി	-9.7469
▁ഓർത്ത	-9.74695
rayum	-9.74745
▁നിൽക്കുന്ന	-9.74841
▁pritvi	-9.74905
▁mad	-9.74962
q	-9.75029
▁കൊടുക്ക	-9.7505
▁നടന്ന	-9.75177
ambavam	-9.75322
▁parayunnu	-9.75332
▁കൊണ്ടു	-9.75362
▁മു	-9.75366
all	-9.75411
AND	-9.75414
▁ട്രാക്ക	-9.75517
▁ya	-9.75577
▁pwolich	-9.756
യി	-9.75635
▁nokki	-9.75667
j	-9.75727
രുടെ	-9.75821
are	-9.75825
▁Ag	-9.75856
onum	-9.75858
▁കോ	-9.75946
▁aah	-9.76137
kashtam	-9.76145
▁itt	-9.7618
▁Pe	-9.76215
▁Et	-9.76256
▁orupad	-9.76304
▁HI	-9.76367
from	-9.7643
▁enkilum	-9.76478
▁രാജ	-9.76578
=	-9.76672
kale	-9.76887
▁0:3	-9.76958
▁lalettane	-9.77072
മാർ	-9.77092
▁mechan	-9.77114
രും	-9.77202
▁aara	-9.77239
▁anne	-9.77284
▁രാജുവേട്ടന്റെ	-9.77293
▁So	-9.77341
▁ഫാൻസിന	-9.77355
▁En	-9.77463
▁ja	-9.77483
▁കാട്ട	-9.77687
🤩🤩	-9.77687
▁റോഷ	-9.7772
▁Var	-9.77789
vere	-9.77797
kachi	-9.7781
▁Mamookka	-9.77831
STOR	-9.77847
▁Aaa	-9.77921
nath	-9.78112
▁What	-9.78191
ere	-9.78196
▁Sharukh	-9.78251
▁undaya	-9.78341
▁matte	-9.78479
▁ഖാ	-9.78482
▁MECH	-9.78827
!!!!	-9.78848
▁Jo	-9.78884
▁kittan	-9.78931
▁ശെരി	-9.78942
▁mattu	-9.78958
▁De	-9.78963
▁magic	-9.78973
▁ningalu	-9.79045
్	-9.79077
▁“	-9.7908
▁ബോസ്സേ	-9.7908
▁കോളേജ	-9.7908
▁average	-9.79081
▁salute	-9.79081
ROYAL	-9.79081
▁Haters	-9.79082
▁ഇങ്ങള്	-9.79083
▁ചുമ്മാ	-9.79083
▁Psycho	-9.79087
▁അനുഭവ	-9.79089
▁Thrissur	-9.79091
▁camera	-9.79091
▁Just	-9.79092
▁stunt	-9.79097
▁Sound	-9.79098
▁baby	-9.79108
▁കയ്യിൽ	-9.79109
▁വെയിറ്റ്	-9.79113
▁sample	-9.79113
▁Fight	-9.79115
▁എഡിറ്റ്	-9.79118
▁Team	-9.79133
▁എത്തിയ	-9.79133
▁കാണാതെ	-9.79138
▁വിവരം	-9.79167
▁fit	-9.79174
Suriya	-9.7918
▁nigam	-9.79183
▁ഇത്തരം	-9.79211
▁muthanu	-9.79211
▁Romanjam	-9.79218
▁Geethu	-9.79219
▁degrad	-9.79219
▁ഉയിർ	-9.7922
▁തല	-9.79235
▁വർഷം	-9.79238
▁maathramaano	-9.79244
▁kolamass	-9.79259
▁സാറെ	-9.79262
▁മഞ്ചു	-9.79269
▁namude	-9.79287
▁ചെയ്യണം	-9.79289
▁സന്തോഷം	-9.79334
▁കുഞ്ഞിക്ക	-9.79341
less	-9.79347
▁Petta	-9.79349
▁തമിഴ്	-9.79361
▁ariyamo	-9.79388
▁supper	-9.79395
runnu	-9.79401
▁vijayam	-9.79408
▁പൈസ	-9.79411
▁ഇല്ലാതെ	-9.79412
▁ഓഫീസ്	-9.79443
up	-9.79451
▁മോഹൻദാസ്	-9.79472
▁പിള്ളേരെ	-9.79497
▁cinimayil	-9.79501
▁നീലം	-9.79528
▁പി	-9.79533
▁rajuettan	-9.79545
▁ഉറപ്പാ	-9.79575
▁Aju	-9.79586
▁ഗോപി	-9.79593
▁kurian	-9.79599
▁Wait	-9.79618
▁romanjification	-9.79619
മുള്ള	-9.79633
▁അടിക്കാൻ	-9.79636
▁അണ്ണ	-9.79647
▁kala	-9.79671
▁Release	-9.79712
▁ang	-9.79713
▁മെക്ക	-9.79741
▁പറ്റും	-9.79836
▁അവൻ	-9.7989
▁pu	-9.79917
‍	-9.79931
▁Day	-9.7996
▁vannavarundo	-9.80036
▁maranamass	-9.80072
▁kon	-9.80084
▁aniyan	-9.80112
▁ഇറങ്ങി	-9.80225
V	-9.80282
▁thonniyath	-9.80399
kunna	-9.8044
▁192	-9.80455
▁റേ	-9.80505
▁പേടി	-9.80535
love	-9.80572
▁vannal	-9.80606
▁Ye	-9.80694
▁ഡാൻസ	-9.80756
കളെ	-9.80814
▁One	-9.80857
▁പൊ	-9.80904
▁എന്നിട്ട	-9.8091
ndum	-9.80924
▁🤣	-9.80986
▁ഇന്ത്യ	-9.81065
................	-9.81069
ഗ്	-9.81089
▁vayya	-9.81171
▁pottik	-9.81223
▁thoni	-9.81247
▁appo	-9.81249
▁പ്രതി	-9.81294
▁മുഖ	-9.81396
▁adar	-9.81666
▁lag	-9.81742
▁Ikkaa	-9.81748
ond	-9.81824
sh	-9.81911
▁chila	-9.81973
▁🤗	-9.82034
▁way	-9.82114
▁Enn	-9.82148
പ	-9.82203
▁Nammal	-9.82333
▁ജ	-9.82349
▁Re	-9.82351
▁പൊളിച്ച	-9.82364
▁get	-9.82502
▁Unda	-9.82596
enu	-9.82636
ikkum	-9.82747
▁ile	-9.82765
▁പടത്തി	-9.82964
പ്	-9.83049
▁vanno	-9.83115
▁തം	-9.83191
വം	-9.83499
nt	-9.83526
thi	-9.83547
endi	-9.83571
▁ആക	-9.83645
പ്പൻ	-9.83649
odu	-9.83695
▁ay	-9.83924
▁അവർ	-9.83972
▁പിടിച്ചു	-9.84037
▁ഇല്ലാ	-9.84216
▁move	-9.84295
▁oro	-9.84324
kond	-9.84423
▁അപ്പ	-9.84473
athinte	-9.84474
▁Ethr	-9.84484
▁fana	-9.84509
▁sad	-9.84518
▁Lalettane	-9.84648
▁kaanich	-9.84765
..?	-9.84813
▁valla	-9.84841
▁high	-9.84855
x	-9.84884
🤘	-9.84979
കളിൽ	-9.85031
ko	-9.85038
tte	-9.85057
▁thon	-9.85163
ന്നത്	-9.85169
kaan	-9.85237
▁Eni	-9.85296
▁Po	-9.85321
▁ur	-9.85384
ിച്ച	-9.85389
▁ചെ	-9.85409
...!	-9.85451
▁മുക്കി	-9.85478
▁anennu	-9.85542
▁Cha	-9.85562
andi	-9.85622
▁valich	-9.85659
ിയിൽ	-9.85704
ooooo	-9.8576
19	-9.85789
▁ponnooo	-9.85873
▁Ni	-9.85881
▁ഇതിന	-9.85901
▁കാണാ	-9.8607
പ്പോ	-9.861
dam	-9.86107
▁go	-9.86146
▁poda	-9.86199
▁വെച്ചു	-9.86235
akki	-9.86253
▁മാമാങ്കത്തിന്	-9.86448
pwoli	-9.8653
ful	-9.86591
thy	-9.86651
ിച്ചു	-9.86871
▁varavu	-9.86909
akum	-9.86964
ിട്ടുണ്ട്	-9.87016
mayum	-9.87054
▁pinna	-9.8716
▁guys	-9.87208
▁screen	-9.87288
▁shot	-9.87294
▁fahad	-9.87324
Q	-9.87372
▁കയറി	-9.87393
ിക	-9.87401
▁പറ്റൂ	-9.87402
▁MANJU	-9.87413
▁കിടുക്കാച്ചി	-9.87413
▁ഷാരൂഖ	-9.87413
▁കളക്ഷൻ	-9.87414
▁പ്രിത്വിരാജ	-9.87414
▁SUPER	-9.87415
▁Bilal	-9.87416
▁ഉണ്ണി	-9.87416
▁Japan	-9.87416
▁hvy	-9.87416
▁Watch	-9.87416
▁performance	-9.87422
▁modulation	-9.87423
▁Editing	-9.87424
▁മത്തൻ	-9.87424
▁thrissur	-9.87429
ആന്റണി	-9.87429
▁സാമ്യം	-9.8743
▁മുത്താണ്	-9.87442
▁കളഞ്ഞു	-9.87443
▁തന്നെയാണോ	-9.87451
▁superhit	-9.87454
▁nde	-9.87463
▁അതുക്കും	-9.87466
▁Bro	-9.87481
▁sambavam	-9.87498
▁mammooty	-9.87506
▁പുത്തൻപണം	-9.87506
▁നമസ്കാര	-9.87508
▁എങ്കിൽ	-9.87536
hante	-9.87539
icket	-9.87549
▁aval	-9.87572
▁പൃഥ്വിരാജ്	-9.87579
▁Maranamass	-9.87581
▁മേലെ	-9.87607
▁Kore	-9.87615
▁മൈര്	-9.87634
▁പഠിച്ച	-9.87637
ീണ	-9.87638
▁Aduth	-9.87647
▁ഡ	-9.87658
▁Alle	-9.87661
▁ചെയ്	-9.87679
▁Who	-9.8768
suspense	-9.87687
▁hours	-9.87729
▁മുന്നേ	-9.87733
tra	-9.87746
▁Siddiqu	-9.87752
▁cheyyuka	-9.87761
▁ലിന്റോ	-9.87771
▁സ്വപ്ന	-9.87772
▁cinemaye	-9.87776
▁Support	-9.87779
▁vasudev	-9.87783
yulla	-9.87794
▁സാറ	-9.87798
tion	-9.87801
▁100%	-9.8781
▁ചേട്ടന	-9.87879
▁ചരിത്ര	-9.87885
▁kidukkum	-9.87885
▁ishttam	-9.87886
▁അപ്പോ	-9.87969
▁ആയിട്ട്	-9.87985
▁Please	-9.87995
പ്രതീക്ഷിച്ചില്ല	-9.88001
▁dubb	-9.88003
ത്തിലും	-9.88023
▁maass	-9.88052
▁ബോ	-9.88057
▁irangi	-9.88062
▁powlichu	-9.88071
▁undengil	-9.88143
prayam	-9.88148
▁കത്തി	-9.88223
▁polle	-9.88232
മെന്ന്	-9.88246
▁evan	-9.88313
ിസ്	-9.88345
ക്കുന്നു	-9.88373
▁നിന്റെ	-9.88408
െന്നു	-9.88412
▁ഇതിന്	-9.88512
▁പൊളിക്ക്	-9.88522
▁adikkam	-9.88538
▁devil	-9.88546
ളുടെ	-9.88555
▁Fir	-9.88567
▁ട	-9.88596
▁chaya	-9.88649
മാരെ	-9.88649
▁pazha	-9.88681
ട്ടോ	-9.88692
ജ്	-9.88772
inde	-9.888
▁കൊ	-9.88805
▁nokk	-9.88912
ാന	-9.89128
▁Mari	-9.8918
▁ഡെലിവറി	-9.89297
▁ta	-9.89301
ഞ്ച്	-9.89373
▁സ്നേഹ	-9.89394
he	-9.89452
▁pr	-9.89483
W	-9.89502
alo	-9.89515
ക്കുന്ന	-9.89537
▁പലിശ	-9.89581
▁ന്യൂ	-9.89598
llo	-9.89745
▁നിർത്ത	-9.89961
▁Raj	-9.90056
▁achayan	-9.90119
കളും	-9.90147
▁idaan	-9.90158
തിന്	-9.90308
ുന്നവർ	-9.90316
▁ittal	-9.90453
irst	-9.90466
▁eattan	-9.90568
▁mammookkaa	-9.90577
▁urappa	-9.90605
▁ഇന്റെ	-9.90608
▁koll	-9.90676
▁എട്ട	-9.90718
▁was	-9.90831
▁ഡി	-9.9098
▁naal	-9.91046
▁Dileepettan	-9.91132
ilichundan	-9.91134
▁നോക്കു	-9.913
▁മാറ്റ	-9.9145
▁innu	-9.91588
▁പുത്തൻ	-9.91588
▁adii	-9.91653
▁ഊ	-9.91694
നം	-9.91764
unavar	-9.91838
ഇക്ക	-9.91854
▁aayit	-9.91879
▁ende	-9.9188
മയെ	-9.91894
▁CA	-9.91982
▁പേര	-9.92011
▁198	-9.9202
യില്ല	-9.92063
▁kuthi	-9.92109
▁polik	-9.92147
kalum	-9.92204
▁thonn	-9.92205
athra	-9.9239
▁adichittu	-9.92531
kar	-9.92548
ning	-9.92557
▁vend	-9.92635
▁സ്ലാങ്	-9.92679
ബോർ	-9.92686
▁patti	-9.92715
പ്രായം	-9.92817
▁work	-9.92931
▁mammuka	-9.92994
▁kalanju	-9.93061
▁Mo	-9.93063
▁She	-9.93086
avan	-9.93114
▁Ne	-9.93278
▁കാണുമ്പോ	-9.93291
▁കൊള്ള	-9.93457
▁നിവിന	-9.93506
▁vanavar	-9.93512
കട്ട	-9.93541
ഠ	-9.93591
▁rajuvetta	-9.93624
fan	-9.93664
▁വയ്യ	-9.93678
▁ഇട്ടിച്ചന	-9.93732
▁Ind	-9.93756
...........	-9.93774
▁pe	-9.93864
▁chi	-9.9387
uff	-9.93888
ശേഷം	-9.93907
▁ഉണ്ടായ	-9.9397
🤙	-9.93977
▁ചായ	-9.94029
▁In	-9.9405
llu	-9.94082
kkunna	-9.94145
▁🤗🤗	-9.94291
uv	-9.94293
▁1:4	-9.9431
ക്കാ	-9.94452
thorum	-9.94514
▁Jai	-9.94585
▁ishta	-9.94638
▁കൊറ	-9.94663
▁karikk	-9.94679
▁ചാക്കോച്ചന്	-9.94727
▁Sam	-9.94746
▁un	-9.94763
SE	-9.94779
▁kittiya	-9.94815
▁സൗ	-9.94847
▁karo	-9.95155
▁karan	-9.95217
▁നമ്മുക്ക	-9.95233
ാർ	-9.95422
▁ഡ്രൈവി	-9.9545
▁el	-9.95478
atta	-9.95522
▁kaa	-9.95555
▁Makkale	-9.95557
▁എന്തിനാ	-9.9566
▁Sreena	-9.95666
▁potta	-9.95683
▁തോ	-9.95693
റും	-9.95713
▁Ningal	-9.95808
▁nala	-9.95827
▁ഷൈലോക്	-9.95898
ikku	-9.95906
▁ഇപ്പോഴ	-9.95911
yile	-9.9592
iiii	-9.9594
▁Mone	-9.95967
▁ke	-9.95985
irikkum	-9.96006
▁kolla	-9.96012
ore	-9.96055
▁ശ്രീ	-9.96066
▁സാറി	-9.96176
▁സീ	-9.96315
▁ഉറപ്പുള്ള	-9.96334
▁നിറഞ്ഞ	-9.96354
▁music	-9.96399
▁We	-9.96409
▁miss	-9.96468
KERALA	-9.96504
▁CINEMA	-9.96504
▁Caribbean	-9.96504
▁Subscribe	-9.96504
▁മനോഹരമാ	-9.96504
▁Ajith	-9.96506
▁Porinju	-9.96506
▁people	-9.96508
▁ട്രെയ്ലറിൽ	-9.96516
▁ഇഹ്	-9.96521
▁sthalam	-9.96525
▁Jose	-9.96526
▁പൂവൻ	-9.96533
▁veruthe	-9.96546
▁ഉറപ്പിച്ചു	-9.96547
▁lub	-9.96562
▁twist	-9.96582
▁Goosebumps	-9.96584
▁മുസ്ലിം	-9.96589
▁1000	-9.96596
▁polichadukkum	-9.96602
▁എഡിറ്റിംഗ്	-9.96616
▁ഗുഡ്	-9.96626
▁series	-9.9663
▁Kand	-9.96634
▁വേട്ട	-9.96636
▁കണ്ടില്ല	-9.96643
▁kuduthal	-9.96645
▁vandi	-9.96655
▁abhinayam	-9.96657
▁പേരിൽ	-9.96672
▁സംവിധാന	-9.96673
▁rakshayilla	-9.9668
▁ആള്	-9.96723
▁ഇങ്ങളെ	-9.96738
▁sambhavam	-9.9674
▁varsham	-9.96741
▁tholvi	-9.96742
▁thallu	-9.9678
▁നു	-9.96783
▁വെല്ല	-9.96786
▁Adaar	-9.96787
▁Pani	-9.96855
Arjun	-9.96859
mma	-9.96889
▁kandaal	-9.96953
▁ഇതില	-9.96974
▁ഫാ	-9.96997
ളെ	-9.97015
▁ntha	-9.97022
ൊൻ	-9.97023
▁മരയ്ക്കാ	-9.9704
▁വച്ച	-9.97051
▁ഇന്ന	-9.97128
▁ജോർജ്	-9.97148
ഫ	-9.97162
▁aakatte	-9.97178
lal	-9.9724
proud	-9.97263
▁ചാ	-9.97351
▁chumma	-9.97375
▁രക്ഷയ	-9.97394
▁seri	-9.97425
▁യിൽ	-9.97459
▁itta	-9.975
ler	-9.97516
▁thalli	-9.9753
▁മൂത്ത	-9.97532
▁ശരിയല്ല	-9.9754
▁videos	-9.97593
▁ആവുമെന്ന	-9.97618
▁parayam	-9.97623
ഴുതി	-9.97635
son	-9.9764
▁lo	-9.97649
nee	-9.97686
▁nadak	-9.97712
▁എല്ലാവർക്കു	-9.97744
▁മമ്മൂക്കാ	-9.97758
▁ജോബി	-9.97906
▁paraya	-9.97943
ille	-9.97949
▁rekshe	-9.97987
▁under	-9.98106
▁നിറ	-9.98185
▁colleg	-9.98225
▁ondo	-9.98291
▁ravi	-9.98309
▁കോവാല	-9.98317
▁jeevan	-9.98344
▁rajayum	-9.98356
റ്	-9.98399
▁ആര്	-9.98422
▁idayil	-9.98472
▁കുടുംബ	-9.9853
▁aal	-9.98639
elum	-9.98644
pp	-9.98655
▁vida	-9.98708
nulla	-9.9885
▁vallath	-9.98879
ണോ	-9.98905
▁kollame	-9.98911
▁koo	-9.99019
▁gen	-9.99062
▁മലബാ	-9.99097
▁കിട്ട	-9.99112
െയിൻ	-9.9914
yanu	-9.99152
▁gu	-9.99197
▁മറ്റ	-9.99215
lam	-9.99244
▁Ad	-9.99357
▁Nta	-9.99387
▁Likes	-9.99508
ukal	-9.99508
▁ippozh	-9.99515
രണ്ട്	-9.99597
▁വ്യക്തി	-9.99619
▁mumb	-9.99654
▁dialoge	-9.9967
ാവോ	-9.99715
▁typ	-9.99804
▁yaar	-9.99836
▁ഇങ്ങു	-9.99903
▁ine	-9.99958
out	-9.9996
▁koduk	-9.99961
▁Id	-9.99993
ies	-10.0013
avo	-10.0019
▁Ennal	-10.002
▁cinemakal	-10.0025
▁bomb	-10.0038
▁idan	-10.0039
ലി	-10.0039
vil	-10.0043
▁freezer	-10.0046
WAS	-10.0047
▁ഭാവ	-10.0048
ങ്ങോട്ട്	-10.006
▁Evide	-10.0068
▁Nammu	-10.0078
▁ജീവിച്ച	-10.0087
▁sub	-10.009
▁മല	-10.011
▁lad	-10.0111
▁പോക	-10.0112
▁എവിടെയ	-10.0112
🤣	-10.0114
onam	-10.0121
▁0.4	-10.0121
tti	-10.0123
▁kitt	-10.0138
▁im	-10.0139
30	-10.0142
ur	-10.0147
kidu	-10.015
▁ഉണ്ടായിരുന്ന	-10.0151
▁പടത്തിന്	-10.0156
ശു	-10.0158
▁പാവ	-10.016
പ്പി	-10.0164
വർക്ക്	-10.0166
▁pov	-10.0168
ekk	-10.0169
▁Kala	-10.0177
ikunnu	-10.0188
▁thara	-10.0196
yalum	-10.0208
▁paranjaal	-10.0215
ലാ	-10.0215
▁കൂട	-10.0217
▁varan	-10.0228
ആ	-10.0234
കൂടി	-10.0234
▁y	-10.0236
▁malayali	-10.0249
aru	-10.0256
ees	-10.0259
Oru	-10.027
▁ayyi	-10.0274
▁വീട്ടി	-10.0277
▁ullath	-10.0278
സ	-10.0282
hh	-10.0282
ിച്ചാൽ	-10.0283
▁namma	-10.0284
▁ara	-10.0293
▁ഇവ	-10.0295
▁kay	-10.03
▁mathr	-10.0307
ഇത്	-10.0309
▁valar	-10.0317
engil	-10.0318
if	-10.0319
rikum	-10.0321
ecember	-10.0324
▁kalayan	-10.0334
▁കണ്ടോ	-10.0351
സ്റ്റർ	-10.0351
▁jayettan	-10.0352
▁do	-10.0354
▁കല	-10.0355
ian	-10.0359
▁Aah	-10.037
▁മൂഞ്ചി	-10.0374
▁erangi	-10.0385
ت	-10.0387
karam	-10.0387
▁Ra	-10.0388
മാമാങ്കം	-10.0392
അത്	-10.0397
pakshe	-10.0397
▁orap	-10.0407
ിക്കുന്ന	-10.0409
▁manasilay	-10.0412
gil	-10.0412
നേ	-10.0424
▁പൊട്ടി	-10.0426
ove	-10.0426
▁abhinayich	-10.0426
Raja	-10.0434
ness	-10.0434
▁_	-10.0441
gi	-10.0467
▁തൃശ്ശൂർ	-10.0469
ഇട്ടിമാണി	-10.0477
ിരിക്കുന്ന	-10.0478
▁ജി	-10.0479
▁ull	-10.0479
kali	-10.0485
▁ബട്ട	-10.0485
▁ടെ	-10.0486
▁ula	-10.0486
▁Al	-10.0488
▁kayil	-10.0489
ിട്ടും	-10.049
▁poley	-10.0499
▁maati	-10.05
▁ittu	-10.0503
ns	-10.0505
anum	-10.0506
▁ആരു	-10.052
▁maatram	-10.0524
▁Veendu	-10.0531
▁ലാല	-10.0531
▁adike	-10.0542
▁aka	-10.0552
ikkan	-10.0557
ondu	-10.056
▁മൈ	-10.0562
▁Chetta	-10.0571
▁kett	-10.0573
▁നോട്ട	-10.0585
▁dilog	-10.0592
ിത്	-10.0595
▁Sh	-10.0597
▁റിയ	-10.0598
▁theer	-10.0602
at	-10.0603
▁agraham	-10.0607
ullu	-10.0612
▁വീട്	-10.0617
▁തീയേറ്ററ	-10.0617
kkaan	-10.0617
ുക	-10.0622
▁Lu	-10.0629
▁parayum	-10.0632
▁മോഹൻലാലി	-10.0633
ട്ടാ	-10.0633
▁hour	-10.0633
▁എത്തി	-10.0636
▁naad	-10.0636
▁മോ	-10.0639
▁അടിച്ചോ	-10.0642
▁തിയേറ്റ	-10.0646
കും	-10.0646
▁കാണുന്നവർ	-10.0648
last	-10.0649
▁????	-10.065
”	-10.065
▁തണ്ണീർ	-10.065
▁പൈറേറ്	-10.065
▁ബച്ചന്റെയും	-10.065
▁MALAYAL	-10.065
▁romaanjam	-10.065
▁Story	-10.065
▁നൂൽ	-10.065
▁വളർത്തിയിട്ട	-10.065
▁Asuran	-10.065
▁റിയലിസ്റ്റിക്	-10.065
▁Hindustan	-10.0651
▁Kidukkachi	-10.0651
▁veedum	-10.0651
▁Gandhi	-10.0651
▁ഒന്നുമല്ല	-10.0651
▁സ്ഥി	-10.0651
▁better	-10.0652
▁അറിയിക്കുന്നു	-10.0652
▁1:34	-10.0652
▁മുകളിൽ	-10.0653
▁തോന്നുന്നവർ	-10.0653
▁Theater	-10.0654
▁Thalaivar	-10.0654
▁റോൾ	-10.0654
▁ചെയ്യണേ	-10.0654
▁പറ്റില്ല	-10.0655
▁ഉദ്ദേശിച്ചാണ്	-10.0655
▁ബെസ്റ്റ്	-10.0656
▁baki	-10.0657
▁നാളുകൾക്ക	-10.0657
▁കുഴപ്പ	-10.0657
▁തോന്നുന്നത്	-10.0657
▁manasilaayi	-10.0659
▁അധിക	-10.0659
tham	-10.0662
▁ശ്രീനിവാസ	-10.0663
▁Bahubali	-10.0663
▁ഉണ്ടാകും	-10.0664
▁That	-10.0666
▁ക്രിസ്തുമസ്	-10.0667
ക്കെ	-10.0668
▁cast	-10.067
▁വന്നിട്ട്	-10.067
▁കണ	-10.0671
▁thonnane	-10.0671
▁Mollywood	-10.0675
▁vishu	-10.0675
▁Ekka	-10.0678
▁മനുഷ്യ	-10.0678
▁സംശയം	-10.068
▁shane	-10.0681
▁Pwolichu	-10.0684
▁ശ്രീന	-10.0684
▁thalaivar	-10.0685
▁ഭാര	-10.0687
TOR	-10.0687
▁mammunni	-10.0687
▁നാൾ	-10.0688
▁orupaad	-10.0689
▁rasam	-10.0692
▁thonniyathu	-10.0693
▁ദിനങ്ങൾ	-10.0694
nju	-10.0697
▁രാജീവ	-10.0699
▁ഉറപ്പിച്ചവർ	-10.07
▁INDIA	-10.0702
▁ഗംഭീരം	-10.0705
▁ishtapettavar	-10.0706
▁nanna	-10.0709
▁theme	-10.0715
▁ഇതുപോലെ	-10.0716
▁Masss	-10.0716
▁atho	-10.0717
▁ആയോ	-10.0719
▁മുത്ത്	-10.072
▁dark	-10.072
▁arelum	-10.0723
▁feeling	-10.0724
▁അറിയാത്ത	-10.0724
▁ആയത്	-10.0728
▁Pole	-10.073
▁channelil	-10.0732
be	-10.0732
▁Enthu	-10.0734
▁ullathu	-10.0737
▁ithre	-10.074
▁മമ്മുട്ടി	-10.0742
▁നമ്മട	-10.0747
▁pidichu	-10.0751
pm	-10.0753
▁ശരിയാ	-10.0753
kil	-10.0754
▁കേട്ടപ്പോ	-10.0763
ഞ്ഞു	-10.0766
▁വീ	-10.0766
▁For	-10.0767
▁Thank	-10.0772
OW	-10.0773
▁ellavaru	-10.0777
▁കേട്ട്	-10.0778
▁അടിക്കും	-10.078
▁കൾ	-10.0782
▁Hel	-10.0782
▁massss	-10.0784
▁ആക്കും	-10.0785
▁X	-10.0795
ണ്ടി	-10.0797
▁undakum	-10.0797
thukondu	-10.08
▁Padathil	-10.0805
▁Oro	-10.0806
co	-10.0807
ittilla	-10.0807
▁ഇവൻ	-10.0809
▁aduth	-10.0816
49	-10.0818
▁മാറ്റം	-10.0819
്സ്	-10.0819
▁ലൈല	-10.0825
▁മാസ്സ	-10.0826
▁ചളി	-10.0826
illion	-10.0827
ിനു	-10.0829
▁dev	-10.0833
ttam	-10.0834
▁ഒരുമാതി	-10.0834
▁Avasan	-10.0836
▁vallo	-10.084
ാള	-10.084
▁times	-10.084
▁ട്രെയിലറി	-10.0841
▁its	-10.0843
▁Ajay	-10.0844
▁Malayalathil	-10.0845
▁priya	-10.0848
▁Angane	-10.0848
▁വ്യത്യസ്ത	-10.0849
▁Nadu	-10.0863
▁chanel	-10.0869
▁ആൾ	-10.0873
▁polichuu	-10.0874
▁അറിയാ	-10.0875
egil	-10.0877
ONE	-10.088
▁കളയ	-10.0889
▁Evdeyo	-10.0889
▁onnil	-10.0906
raj	-10.091
▁Venda	-10.0913
▁aakki	-10.0915
dae	-10.0919
▁Onnil	-10.0922
▁കിട്ടിയാ	-10.0928
▁aann	-10.0929
ക്കി	-10.0931
▁Thala	-10.0948
▁സ്ത്രീ	-10.0954
ant	-10.0973
ുള്ളവർ	-10.0985
▁!!!!	-10.0995
haram	-10.1003
▁mattor	-10.1009
vine	-10.101
▁prathi	-10.1018
ിംഗ്	-10.1031
RY	-10.1033
▁Nam	-10.1045
▁kk	-10.1047
▁പ്രതീക്ഷിക്ക	-10.1048
ani	-10.1054
▁ethe	-10.1054
▁nnu	-10.1054
ജു	-10.1056
▁appan	-10.1058
▁കരുതി	-10.1092
▁kannu	-10.1096
ൊന്നു	-10.1102
്യ	-10.1103
താ	-10.1103
▁Ore	-10.1104
▁wa	-10.1111
▁maatti	-10.1112
▁ab	-10.1113
▁Come	-10.1118
ക്കുള്ള	-10.1126
▁enkil	-10.1126
▁കാണുന്നത	-10.1133
വരുണ്ടോ	-10.1135
▁ഇതിലു	-10.1142
▁മരണമാസ്സ	-10.1145
▁adichee	-10.1146
arkum	-10.1148
▁se	-10.1148
▁രായ	-10.1162
▁nin	-10.1163
▁ഇങ്ങേര	-10.1165
rikkum	-10.117
pan	-10.1171
▁pine	-10.1178
▁paisa	-10.1179
▁എടുക്ക	-10.1184
▁ഇടക്ക	-10.1191
▁ഇട്ടി	-10.1211
▁കൂട്ട	-10.1214
▁ഇതെന്ത	-10.1217
▁pazh	-10.1219
athile	-10.1221
▁FA	-10.1223
ide	-10.1223
hiri	-10.1224
േൽ	-10.1235
വശ്യം	-10.1236
rissur	-10.124
ത്തി	-10.1241
▁petta	-10.1243
▁തീയേറ്ററി	-10.1244
▁Namma	-10.1244
▁ker	-10.1248
ene	-10.1249
▁വെള്ളത്തി	-10.1251
oode	-10.1251
▁macha	-10.1265
▁ബാ	-10.1265
ാഥ	-10.1267
▁പാതിര	-10.127
▁idum	-10.1279
▁മണിക്കൂ	-10.128
athum	-10.1283
▁ചെയ	-10.1287
▁മമ്മൂക്കയെ	-10.1293
uda	-10.1293
▁അറിയിച്ചു	-10.1298
ീട്ട	-10.1303
▁നിര	-10.1308
pol	-10.1314
▁അല	-10.1318
▁Und	-10.132
▁mam	-10.1322
▁.......	-10.1322
▁mall	-10.1322
▁Mani	-10.1322
യർ	-10.1324
▁sree	-10.1344
ellam	-10.135
per	-10.1361
▁നോ	-10.1363
olam	-10.1363
ttimaani	-10.137
▁pillar	-10.1374
▁ivan	-10.1376
ariyam	-10.1378
▁kettu	-10.1382
▁പോള	-10.1394
▁thonnun	-10.1396
മലയാള	-10.1397
▁thann	-10.1405
▁swasu	-10.1414
▁vineeth	-10.1423
▁Nal	-10.1427
▁LI	-10.1428
▁കേട്ട	-10.143
kalude	-10.1432
▁machan	-10.1437
kunnavar	-10.1446
kkunnu	-10.1451
iiiii	-10.1456
super	-10.1456
LAD	-10.1462
▁iruku	-10.1463
▁സി	-10.1463
akk	-10.1463
▁വരുന്നുണ്ട	-10.1472
patti	-10.1472
ലാലേട്ടൻ	-10.1481
▁🤣🤣🤣🤣	-10.1484
▁ഇഷ്ടമായ	-10.1485
വേറെ	-10.1488
best	-10.149
china	-10.149
nta	-10.1498
asam	-10.1501
ich	-10.1505
▁kad	-10.1508
▁kaanunna	-10.1509
Shylock	-10.151
mamangam	-10.1512
All	-10.1515
▁atra	-10.1515
ഫ്	-10.1515
▁ദേവ	-10.1516
ടിക്ക	-10.1519
▁ബുക്ക	-10.1521
തന്നെ	-10.1541
thokke	-10.1542
▁adichitt	-10.1553
▁stat	-10.1553
▁ചെമ്പ	-10.1559
▁നൽകിയ	-10.1565
tavum	-10.1568
റ്സ്	-10.1585
int	-10.1585
▁അതേ	-10.1588
▁vach	-10.1595
▁ലൂസിഫ	-10.1597
▁avo	-10.16
▁Jayettan	-10.1602
▁kanicha	-10.1603
▁Malaya	-10.1603
stand	-10.1604
തെ	-10.1614
▁roma	-10.1616
▁ponnoo	-10.1627
ate	-10.1632
▁wow	-10.1633
kko	-10.1643
താണോ	-10.1643
▁kutta	-10.1644
ooooooo	-10.1644
ച്ചിരി	-10.1645
▁Powli	-10.1646
▁itra	-10.165
▁sherikku	-10.1651
▁അതിന്	-10.1655
യൻ	-10.1655
▁റ	-10.1655
🤣🤣	-10.1661
ന്റ്	-10.1674
▁ആരാധിച്	-10.1681
▁ithe	-10.1687
യല്ല	-10.1688
ങ്ങി	-10.1689
൯	-10.1696
ER	-10.1698
▁adiii	-10.1699
▁thott	-10.1702
eet	-10.1704
▁മുൻ	-10.1713
ity	-10.1714
▁mamookka	-10.1715
ment	-10.1716
▁തെറ്റ	-10.1727
▁കിട്ടി	-10.173
nnam	-10.174
▁Rajuvetta	-10.1741
▁വിടമാട്ടേ	-10.1742
▁സോ	-10.1747
▁anoo	-10.1748
▁kodukku	-10.1748
ede	-10.1751
▁plzzz	-10.1754
G	-10.1756
▁ഊമ്പി	-10.1758
ൻസ്	-10.1759
▁addict	-10.176
▁minute	-10.176
H	-10.176
▁മലപ്പുറ	-10.1761
▁MADHURA	-10.1761
ం	-10.1761
▁AKSFA	-10.1762
▁SUBSCRIB	-10.1762
▁oberoi	-10.1762
▁ഷാരുഖ	-10.1762
▁സെക്കന്റ	-10.1762
▁Loading	-10.1762
▁പൂണ്ടു	-10.1762
▁Mavan	-10.1762
▁mwuth	-10.1762
▁പൂമരം	-10.1762
▁TEAM	-10.1762
▁break	-10.1762
▁combination	-10.1762
▁പ്ലസ്	-10.1762
▁ബോംബ	-10.1762
▁dress	-10.1762
▁കില്ലർ	-10.1762
▁ഫ്രണ്ട്	-10.1762
▁muzhuvan	-10.1762
▁reddy	-10.1762
▁ഹാപ്പി	-10.1762
▁നുമ്മ	-10.1762
▁ഭരിക്കും	-10.1763
▁ട്രെയ്ലർ	-10.1763
▁theeravunna	-10.1763
▁Kumar	-10.1763
▁Ejjathi	-10.1764
▁pravashyam	-10.1764
▁തോന്നുന്നില്ല	-10.1764
▁viewrs	-10.1764
▁ചെയ്യുമോ	-10.1765
▁ഒരിക്കലും	-10.1765
▁life	-10.1765
▁carib	-10.1766
▁ഏകദേശ	-10.1766
▁ഇറുക്കെ	-10.1766
▁Ittymaani	-10.1766
▁ഫോർ	-10.1766
▁iruken	-10.1767
▁2.5	-10.1768
▁മുത്തേ	-10.1768
▁അറിയില്ല	-10.1768
▁കാണുന്നില്ല	-10.1769
▁തോന്നിയോ	-10.177
▁rocks	-10.177
▁coment	-10.177
chasan	-10.1771
▁0:2	-10.1771
▁Ellarum	-10.1771
▁മാത്രമല്ല	-10.1771
▁വിചാരിച്ചു	-10.1772
▁marakar	-10.1773
🤔🤔	-10.1774
▁aanalo	-10.1774
▁പോകുന്നത്	-10.1775
▁വേഗം	-10.1775
▁yenn	-10.1776
▁ഇന്നേ	-10.1776
▁Rakshasa	-10.1777
▁കുര	-10.1777
▁kura	-10.1777
▁ജീ	-10.1777
▁mood	-10.1777
▁PMJ	-10.1781
▁Hvy	-10.1781
▁leval	-10.1781
▁ലോക്ക	-10.1781
▁father	-10.1781
▁അമ്മോ	-10.1781
▁clubil	-10.1782
▁hope	-10.1782
▁ക്ലാസ്സ്	-10.1782
yettan	-10.1783
▁menon	-10.1785
▁പ്രേമം	-10.1787
ധിക	-10.1787
▁lyk	-10.1789
▁VAADA	-10.1789
▁Song	-10.179
▁മാറും	-10.179
▁ടീം	-10.1792
day	-10.1793
▁Mammoka	-10.1795
romancham	-10.1795
▁pwli	-10.1796
▁പ്രിയദർശ	-10.1796
▁killer	-10.1797
▁പോളിക്ക്	-10.1798
▁cheyyunnu	-10.1799
▁പ്രിയൻ	-10.1799
▁Pattu	-10.1799
▁perund	-10.1802
▁ഫ്ലോ	-10.1802
▁കൊണ്ടാണ്	-10.1802
▁young	-10.1803
▁marikkum	-10.1804
mmo	-10.1805
ea	-10.1808
▁Moothon	-10.181
▁differen	-10.1811
▁Stephen	-10.1814
▁poyath	-10.1815
ir	-10.1815
▁കാരൻ	-10.1816
▁പണ്ട്	-10.1819
▁ishtapettu	-10.1819
▁vittu	-10.1822
▁ivane	-10.1834
▁hi	-10.1835
സ്റ്റോറി	-10.1836
▁Or	-10.1836
▁eshtam	-10.1837
▁BOSS	-10.184
▁fansin	-10.184
▁Annu	-10.1842
▁Now	-10.1844
▁ജോ	-10.1844
▁machane	-10.1845
▁even	-10.1845
▁കുട്ടി	-10.1847
▁പറ്റി	-10.1847
▁dilogu	-10.1849
▁povum	-10.1852
▁onnood	-10.1853
ji	-10.1854
▁padakkam	-10.1858
▁vanne	-10.1862
▁ഷോ	-10.1864
▁തുടക്ക	-10.1867
▁MAMMOOTTY	-10.187
▁adikkunna	-10.187
▁pottan	-10.1873
▁daaaa	-10.1874
▁evideyo	-10.1875
▁ചെയ്യാം	-10.1879
▁padicha	-10.188
▁KIDU	-10.188
▁pira	-10.1882
▁പൊളിച്ച്	-10.1887
▁mukundan	-10.1889
▁വിട	-10.1889
▁ipo	-10.1893
▁likum	-10.19
stan	-10.19
▁laila	-10.1903
▁തരം	-10.1903
▁cheyan	-10.1904
▁അറിവ	-10.1905
▁നാള	-10.1906
▁ആരാധകർ	-10.1908
pratheekshikunnu	-10.1908
▁Swasu	-10.1916
UM	-10.1922
▁അസുരന	-10.1924
▁kaanumbol	-10.1928
▁BE	-10.1928
▁മണക്കുന്നു	-10.1938
▁edutha	-10.194
▁ningalk	-10.1943
മ്പ	-10.1943
standard	-10.1949
▁Fr	-10.1949
▁nokkanda	-10.1953
▁ikkaaaa	-10.1953
NGAL	-10.1958
▁thakarthu	-10.1963
▁അറിയ	-10.1966
▁ap	-10.1966
umbo	-10.1967
▁Lalletan	-10.1969
▁ayirikum	-10.1971
▁vili	-10.1971
mum	-10.1975
▁Edak	-10.1981
▁അറബിക്കടലിന്റ	-10.1983
▁കണ്ടിട്ടില്ല	-10.1983
▁allallo	-10.1984
innu	-10.1985
▁തോന്ന	-10.1989
🤣🤣🤣	-10.1991
▁Ravi	-10.1995
▁aayittu	-10.1995
▁Ithentha	-10.1995
്യൻ	-10.1997
▁ഷെയ	-10.2003
▁pedi	-10.2004
▁nilkunna	-10.2008
ight	-10.2009
▁ട്രെയിലറ	-10.2016
▁nammale	-10.2017
▁side	-10.2017
▁തോന്നുന്ന	-10.2018
▁ga	-10.2024
icha	-10.2029
▁movi	-10.203
നിൽ	-10.2038
low	-10.2038
UDE	-10.2044
▁swa	-10.2054
▁nale	-10.2056
▁bo	-10.2059
▁ഗാന	-10.206
▁വേണ്ടാന്ന	-10.2062
▁മറിയ	-10.2066
▁polichadukki	-10.2066
▁ചെക്ക	-10.2069
▁ലാലേട്ടന്	-10.2073
ിട്ടു	-10.2074
▁വായിച്ച	-10.2074
▁ഉണ്ടേ	-10.2075
▁ഞാ	-10.2075
▁reksha	-10.2089
അ	-10.209
▁ട്ടോ	-10.2093
▁വെടി	-10.2095
nkil	-10.2097
▁sec	-10.2108
▁എന്തു	-10.2115
▁കമ്മ	-10.212
▁too	-10.2122
▁munn	-10.2124
athi	-10.2126
▁kanikkan	-10.2129
▁ഇറങ്ങുന്ന	-10.2131
▁hey	-10.2146
▁vellan	-10.2146
▁നൽക	-10.2146
കിൽ	-10.2147
LE	-10.2148
ന്തം	-10.215
▁makan	-10.215
▁pottiya	-10.215
▁kanich	-10.2151
▁industriy	-10.2154
ava	-10.2158
▁thudangi	-10.2158
aju	-10.2162
▁ചെയ്യുന്നവർ	-10.2163
oor	-10.2163
▁ക്യാ	-10.2165
യിരിക്കും	-10.2166
▁roll	-10.2171
ol	-10.2172
▁Pora	-10.2173
▁ടീസറിന്	-10.2175
15	-10.2183
▁pari	-10.2189
▁movieyil	-10.2191
▁filmil	-10.2193
kanam	-10.2196
▁ഭ	-10.22
than	-10.2207
▁amma	-10.2208
ര്യം	-10.2218
▁kollaam	-10.2224
▁makale	-10.2232
▁kalla	-10.2245
koodi	-10.2246
▁ഞെട്ടി	-10.2248
▁ബോറ	-10.2255
▁ariyan	-10.2257
▁chy	-10.2264
APP	-10.2267
▁nada	-10.2273
▁indallo	-10.2273
മായിരുന്നു	-10.2275
▁അതിന	-10.2276
ട്ടും	-10.2277
യാലും	-10.2279
▁കേട്ടിട്ട	-10.2295
▁put	-10.2312
▁വമ്പ	-10.2312
▁book	-10.2312
▁Dec	-10.2314
▁ponn	-10.2314
▁jayetta	-10.2319
▁ജാക്ക	-10.2321
bol	-10.2323
▁Inn	-10.2323
ല്ലെ	-10.2324
▁avatte	-10.2326
ക്കിയ	-10.2327
▁കാര്യ	-10.2327
▁13	-10.233
ro	-10.2344
▁Gr	-10.2346
▁HIS	-10.2347
ോട്ട്	-10.2351
bst	-10.2355
▁ഇടി	-10.2359
as	-10.2367
▁ഗാണ്ടില	-10.2369
▁vecha	-10.237
▁മറ	-10.2375
നോ	-10.2375
▁Hi	-10.2378
▁mattan	-10.2381
▁tir	-10.2384
range	-10.2387
▁rand	-10.2393
▁cho	-10.2395
▁മാറ്റിയ	-10.2398
ാണ്ടിലിരുക്ക	-10.2399
▁എൻ	-10.2406
▁Ithokk	-10.2411
▁നിനക്കി	-10.2411
▁marak	-10.2411
▁/	-10.2411
▁ketti	-10.2424
eep	-10.2426
▁പോയാൽ	-10.2431
im	-10.2432
chayan	-10.2435
iyil	-10.2439
▁നിവി	-10.2441
തിരി	-10.2444
രാ	-10.2448
▁pok	-10.2449
idayil	-10.245
ayirikum	-10.246
▁arinj	-10.246
ക്കേ	-10.2464
ub	-10.2465
▁Oberoi	-10.2465
▁thu	-10.2467
യുണ്ട്	-10.2471
ോട	-10.2472
dey	-10.2474
▁ശബ്ദ	-10.2475
dhe	-10.248
▁Theatr	-10.2483
▁ഷൈലോക്ക	-10.2487
▁avathara	-10.2489
▁സന്തോഷ	-10.2493
വരും	-10.2494
▁കാണിക്ക	-10.2497
avunna	-10.2499
ittum	-10.2501
▁ca	-10.2508
നാ	-10.2513
ghane	-10.2515
▁Si	-10.2517
▁mutt	-10.2517
▁us	-10.2518
▁സീന	-10.2523
ithinte	-10.2525
arenkilum	-10.2527
▁enthe	-10.2531
▁18	-10.2533
..!	-10.2542
▁raksh	-10.2545
inum	-10.2548
▁gand	-10.2552
▁അല്ലാ	-10.2554
▁villi	-10.2554
ഇ	-10.2558
▁ശരത്ത	-10.2561
കാല	-10.2562
adh	-10.2562
▁ever	-10.2563
▁വീട്ട	-10.2564
▁കുറഞ്ഞ	-10.2564
▁കാലത്ത	-10.2566
▁munpu	-10.2579
▁തമ്പുരാ	-10.2593
▁തള്ള	-10.2609
ക്ടർ	-10.261
▁cheyt	-10.2617
ല്ലാതെ	-10.2625
▁inger	-10.2628
▁Ve	-10.2631
▁natur	-10.2632
▁dek	-10.2637
ിപ്പി	-10.2647
▁യെ	-10.2648
kkukal	-10.265
▁chirich	-10.2652
▁ra	-10.2653
▁thonunu	-10.2655
anna	-10.2666
si	-10.2671
േര്	-10.2672
▁ലെവല	-10.2676
unnath	-10.2684
sha	-10.2685
എന്റെ	-10.2688
ഞാൻ	-10.2689
ക്കോ	-10.2689
▁pattum	-10.2689
ായിരിക്കും	-10.2695
▁മുത്ത	-10.2696
▁pott	-10.27
▁വിചാരിച്ച	-10.2703
▁ala	-10.2707
Mass	-10.2709
ക്കാലത്ത	-10.271
കാശ്	-10.2711
ae	-10.2715
zha	-10.2722
............	-10.2724
▁നിങ്ങ	-10.2725
▁run	-10.273
▁madhuraja	-10.273
▁naalu	-10.2739
prithviraj	-10.274
mohanlal	-10.2744
▁onathin	-10.2748
▁ചാവേ	-10.2749
▁ബേ	-10.2751
▁adikkanull	-10.2751
lucifer	-10.2751
സിക്	-10.2754
▁പൊള	-10.276
▁ബി	-10.276
മുഖ	-10.2765
lan	-10.2773
▁vara	-10.2775
▁പര	-10.278
യാൾ	-10.2788
ive	-10.2789
▁മനസ്സ	-10.2789
▁endo	-10.2792
▁ent	-10.2792
▁aada	-10.2796
▁അടിക്കു	-10.28
കോടി	-10.2807
▁പോവ	-10.2809
kkaa	-10.2823
▁aarelum	-10.2825
▁കീ	-10.2831
▁MA	-10.2832
aanallo	-10.2835
▁മഹേഷി	-10.2835
▁industri	-10.2841
▁delet	-10.2842
▁olla	-10.2843
▁adu	-10.2844
▁ena	-10.2845
▁pon	-10.2845
▁ജയിക്ക	-10.2852
▁ഇവള	-10.2852
ഞ്ഞ	-10.2854
▁സിനിമയ്ക്ക	-10.2859
tam	-10.286
▁ജീവിത	-10.286
▁nam	-10.2865
azil	-10.2866
IC	-10.2871
kathe	-10.2871
▁എല്ല	-10.2872
By	-10.2872
▁kathu	-10.2875
alkar	-10.2875
ran	-10.2878
chi	-10.2878
▁മഞ്ജുചേച്ചി	-10.2879
പൂർവ	-10.2889
▁pi	-10.289
ീയ	-10.2892
▁bad	-10.2892
ിക്കട്ട	-10.2892
▁co	-10.2896
▁cheta	-10.2897
ൂട്ട്	-10.2898
▁nallath	-10.2901
▁irukk	-10.2915
▁Im	-10.2915
icense	-10.292
ള്ള	-10.2922
▁polichuuu	-10.2923
▁3.	-10.2924
▁manass	-10.2925
▁ഡബ്ബ	-10.2925
daa	-10.2925
kunathu	-10.2925
▁iniyu	-10.293
20	-10.2932
ുന്നില്ല	-10.294
▁kanu	-10.2943
▁Kai	-10.2947
ooper	-10.2949
▁ishtapetta	-10.2951
ST	-10.2952
▁kandittilla	-10.2952
▁tral	-10.2957
▁LAL	-10.2958
▁Ayy	-10.2959
▁kelk	-10.2959
nni	-10.2959
▁what	-10.2962
▁idak	-10.2964
▁90	-10.2971
▁ven	-10.2973
tum	-10.2984
▁വേറ	-10.2984
ട്ടി	-10.2988
ടുത്ത	-10.2989
▁മേ	-10.2989
▁nool	-10.2993
മാനു	-10.2993
യാൻ	-10.2995
▁parayu	-10.2995
▁matramano	-10.2995
▁ഞങ്ങൾക്ക	-10.2997
▁പ്രസ	-10.2999
tain	-10.2999
▁hel	-10.3
▁et	-10.3001
▁കോളനി	-10.3004
▁എന്റ	-10.3007
▁cmnt	-10.3009
ಾ	-10.3009
▁Dialog	-10.3011
▁Prithwi	-10.3011
ಲ	-10.3011
ಟ	-10.3011
▁sparrow	-10.3012
ك	-10.3012
▁BACK	-10.3012
▁amazing	-10.3012
▁entertainment	-10.3012
▁അഴിഞ്ഞാട്ടം	-10.3012
▁കോംബോ	-10.3012
▁യഥാർത്ഥ	-10.3012
▁യൂട്യൂബ	-10.3012
▁Repeat	-10.3012
▁perfect	-10.3012
▁namaskaram	-10.3012
▁warier	-10.3012
▁സാധാരണ	-10.3012
▁hindhu	-10.3012
▁sithara	-10.3012
▁കൊച്ചുണ്ണി	-10.3012
▁colour	-10.3012
▁common	-10.3012
▁ഒഴിവാക്ക	-10.3012
▁pulimurukan	-10.3012
▁കഷ്ടം	-10.3012
▁OMG	-10.3012
▁സിദ്ധിക്ക	-10.3012
▁reference	-10.3012
▁ejjaathi	-10.3012
▁bahubali	-10.3012
▁brilliance	-10.3012
▁നടനായത്	-10.3012
▁also	-10.3012
▁ആയിരിക്കുമെന്ന്	-10.3012
▁റെഡി	-10.3013
▁drama	-10.3013
▁varghees	-10.3013
▁satyam	-10.3013
▁sleep	-10.3013
▁porinju	-10.3013
▁പേരുണ്ട്	-10.3013
▁മോളെ	-10.3013
▁വെയ്റ്റിങ്	-10.3013
▁ജോജോ	-10.3014
▁പറ്റാത്ത	-10.3014
▁പറയാലോ	-10.3014
queen	-10.3014
▁തെലുങ്ക	-10.3014
▁Maamangam	-10.3014
▁thoniyavar	-10.3014
▁മോഹൻ	-10.3014
▁abrid	-10.3015
▁dubbed	-10.3015
▁നിഗം	-10.3015
▁Margam	-10.3015
▁Innale	-10.3015
▁കാണട്ടെ	-10.3015
▁കാര്യങ്ങൾ	-10.3016
▁വിനീതേട്ടൻ	-10.3016
▁pollikum	-10.3016
▁Feel	-10.3016
▁ടീസറും	-10.3016
▁Good	-10.3016
▁കല്ല്	-10.3016
▁pakanum	-10.3016
▁ഇരിക്കെ	-10.3017
▁വിശ്വസിക്ക	-10.3017
▁padakam	-10.3018
▁China	-10.3018
▁1:08	-10.3018
▁avastha	-10.3018
▁career	-10.3019
▁പറഞ്ഞേക്ക്	-10.3019
▁fansukar	-10.302
▁ശ്രദ്ധിച്ചു	-10.302
▁ആവാതിരുന്ന	-10.302
▁സിൽമ	-10.3021
▁gonna	-10.3021
▁Pullu	-10.3021
▁pauly	-10.3022
▁kalaki	-10.3022
▁paksha	-10.3023
athine	-10.3023
▁Midhun	-10.3024
▁uvve	-10.3024
▁malayalikalude	-10.3025
▁ബ്ലോക്ക്	-10.3026
▁mundum	-10.3026
▁സോങ്	-10.3028
▁ക്	-10.3029
▁സബ്	-10.303
▁lalettaaaaaaa	-10.3031
▁kalakkum	-10.3031
▁സിംഹം	-10.3032
▁Of	-10.3033
▁vettum	-10.3033
▁yudham	-10.3033
▁മാർഗംകളി	-10.3034
▁ആയാലും	-10.3034
▁നേടും	-10.3035
▁giri	-10.3036
▁Kalki	-10.3036
▁thonnal	-10.3039
▁Mallu	-10.3039
▁vitt	-10.3039
▁Chemban	-10.3039
▁ചേട്ടനെ	-10.3041
fe	-10.3043
keep	-10.3048
▁ധൈര്യം	-10.3048
▁scen	-10.3048
▁കഥാപാത്രങ്ങൾ	-10.3049
▁thonun	-10.3054
▁റീ	-10.3054
▁Show	-10.3056
▁vesham	-10.3058
▁more	-10.3059
▁ജീവിതം	-10.3059
▁പ്രകടന	-10.306
▁powlikkum	-10.306
▁idakk	-10.3061
▁Iniyum	-10.3062
▁കുടുംബം	-10.3062
▁ആവാൻ	-10.3063
▁م	-10.3065
▁aarunnu	-10.3065
▁sathyam	-10.3065
▁Visual	-10.3066
▁Face	-10.3068
▁ഇതൊന്നു	-10.307
▁ayirunu	-10.3073
▁illallo	-10.3076
▁kottayam	-10.308
▁നാളെ	-10.3082
▁സങ്കടം	-10.3086
▁Wo	-10.3087
▁kaalam	-10.3087
▁ഭാഷാ	-10.3089
▁കേട്ടു	-10.309
▁തീരുമാനിച്ച	-10.309
▁40	-10.3092
▁വെറുപ്പിക്ക	-10.3096
▁pada	-10.3096
▁ethi	-10.3098
▁Hats	-10.31
▁ആണ്ട	-10.3101
▁കേരളത്തില	-10.3101
▁തു	-10.3102
▁ഇപ്പോ	-10.3104
▁മൊതലാണ	-10.3107
▁kudung	-10.3109
▁മനസ്സ്	-10.3112
▁ഭാഗ്യ	-10.3114
▁%	-10.3114
കൂറ	-10.3117
▁കാണു	-10.3118
▁HERE	-10.312
▁irukku	-10.3126
entha	-10.3128
▁ര	-10.3129
▁പള്ളി	-10.3131
മേ	-10.3136
▁Avan	-10.3141
▁Rahu	-10.3141
▁ആണെ	-10.3145
▁reksh	-10.3145
▁YOU	-10.3145
▁Pand	-10.3148
▁lalletan	-10.3149
▁കൊറി	-10.315
▁charithra	-10.3152
▁rea	-10.3159
ില്ലാത്ത	-10.3161
▁njagad	-10.3162
▁ethanu	-10.3165
▁പുള്ള	-10.3171
pe	-10.3172
▁ea	-10.3172
X	-10.3173
nda	-10.3178
anengil	-10.3178
▁manassilay	-10.3179
▁Pinne	-10.3183
▁2:	-10.3184
നാടൻ	-10.3185
▁vayi	-10.3187
കം	-10.3197
cent	-10.3205
▁line	-10.3213
നാണ്	-10.3214
▁തടി	-10.3215
▁innale	-10.3218
chavada	-10.3221
▁;	-10.3226
▁nan	-10.3226
▁kurich	-10.3236
aka	-10.3237
▁poliyanu	-10.3238
▁🤣🤣	-10.3241
▁പറ്റുന്ന	-10.3242
ണ്ടേ	-10.3244
▁kayari	-10.3255
▁Ingane	-10.3256
െല്ലാം	-10.3261
▁tra	-10.3262
▁orumich	-10.3263
▁kash	-10.3263
oshan	-10.3265
▁സുരാജേട്ട	-10.3265
▁ഇവിട	-10.3266
െടാ	-10.3269
▁പറയും	-10.3269
▁കോപ്പ	-10.327
yaanu	-10.3271
ക്കുക	-10.3271
into	-10.3273
യല്ലേ	-10.3274
്രതീക്ഷിക്കുന്നു	-10.3276
▁undoo	-10.3278
▁vila	-10.3279
▁mala	-10.3283
▁undavum	-10.3284
nilla	-10.3291
▁Ittichan	-10.3293
▁supportum	-10.3294
▁Enikk	-10.3299
▁Supr	-10.3303
▁മനുഷ്യനെ	-10.3308
▁ഒന്നുമില്ല	-10.331
▁upload	-10.3312
angane	-10.3315
▁pre	-10.3316
▁parayana	-10.3323
Kilichundan	-10.3329
▁തന്നെയാ	-10.3331
വൽ	-10.3337
▁Hero	-10.3343
▁dailog	-10.3345
▁dileepettan	-10.3347
▁ing	-10.3349
▁eppo	-10.335
▁1:3	-10.3352
ntha	-10.3358
▁kalam	-10.3362
eth	-10.3363
ankil	-10.3367
▁വാര്യരു	-10.3374
C	-10.3378
ula	-10.3381
yap	-10.3381
▁അവനെ	-10.3388
▁thonunn	-10.3394
▁ellavar	-10.3396
▁TO	-10.3397
▁lallettan	-10.3416
tto	-10.3432
▁etu	-10.3433
AIN	-10.3435
ca	-10.3436
▁ആവാ	-10.3438
ilaa	-10.344
▁rakshasa	-10.3442
▁Sathya	-10.3446
▁bapp	-10.3449
▁നൽകുന്ന	-10.3449
▁aannu	-10.345
▁irakkiya	-10.3454
▁സാ	-10.3458
▁കഥാപാത്രവു	-10.3462
▁malayal	-10.3463
TING	-10.3465
ి	-10.3471
▁വിളി	-10.3472
▁room	-10.3472
▁adikkaan	-10.3477
▁രണ്ട	-10.348
▁irunna	-10.3485
▁fu	-10.3493
▁kazhin	-10.3494
▁kazhinja	-10.35
▁paranjappo	-10.3501
ikunu	-10.3501
▁kaanunnath	-10.3502
▁anallo	-10.3506
avarum	-10.3508
▁ayit	-10.351
▁edukkan	-10.3518
vane	-10.3525
▁Ingan	-10.3528
ന്റ	-10.3532
▁സുരാജേട്ടന	-10.354
▁Ithin	-10.3548
▁ഫ്ര	-10.3551
▁add	-10.3556
▁Ch	-10.3558
now	-10.3561
▁aanda	-10.3565
▁NE	-10.3567
▁maas	-10.3574
▁paran	-10.3577
▁Ko	-10.3578
വൾ	-10.3579
anne	-10.358
▁adikum	-10.3592
amayirunnu	-10.3599
പ്പിക്കുന്ന	-10.36
▁dhe	-10.3601
ിരുന്നു	-10.3603
ker	-10.3606
mas	-10.3626
▁ചെയ്യ്	-10.363
▁poku	-10.3642
kaachi	-10.3645
EN	-10.3645
ണല്ലോ	-10.3647
▁250	-10.3647
വാ	-10.3651
nyway	-10.3654
rich	-10.3664
▁ഭാഗ	-10.3673
ue	-10.3676
▁kadalil	-10.3676
mmookka	-10.3683
ers	-10.3687
illalo	-10.3687
▁kandavarkk	-10.3691
▁pirat	-10.3693
ALI	-10.3695
TH	-10.3695
▁mathy	-10.3704
ിരിക്കും	-10.3718
▁muruga	-10.3718
ലോകം	-10.373
▁ഇയാൾ	-10.3732
▁ആട	-10.3738
attan	-10.3738
▁വച്ചു	-10.3741
udiya	-10.3745
▁ethum	-10.3747
▁An	-10.3748
▁maathr	-10.3749
▁34	-10.3756
▁സുരാജേട്ടന്റെ	-10.3761
id	-10.3763
LI	-10.3766
▁രക്ഷയില്ല	-10.3771
▁faan	-10.3772
kaa	-10.3778
▁ഞങ്ങളു	-10.3781
▁AN	-10.3782
▁enthina	-10.3783
▁ayittu	-10.3787
▁പൊട്ടിക്ക	-10.3788
▁bhas	-10.3789
xt	-10.3792
▁വേഷ	-10.3794
▁vayas	-10.3798
TIC	-10.3805
▁Kan	-10.3811
▁മാമാങ്ക	-10.3813
▁ariyilla	-10.3819
ുമോ	-10.3819
▁ettanu	-10.3821
▁MAMMOOKKA	-10.3827
ande	-10.3827
▁ge	-10.3827
▁ഉദാ	-10.3834
രിക്കാൻ	-10.3836
േണ്ടി	-10.3836
▁Ar	-10.3839
▁mol	-10.3841
▁she	-10.3847
CEN	-10.3855
ster	-10.3855
sil	-10.3855
▁wo	-10.386
▁വായ	-10.3861
പ്പോയി	-10.3861
▁ഇതിനെ	-10.3866
▁ആക്കിയ	-10.3878
▁don	-10.3882
ba	-10.3886
▁എന്തൊക്കെയ	-10.3887
▁maasss	-10.3888
▁തമിഴില	-10.3889
unni	-10.3889
▁ഇതെന്താ	-10.3895
▁Jayetta	-10.3901
▁kaana	-10.3904
opy	-10.3905
▁ഇന	-10.3906
aalum	-10.391
പ്പുറ	-10.391
ീവ്	-10.3914
▁pilleru	-10.3915
▁anel	-10.3915
▁തീയേറ്റ	-10.3924
kunnu	-10.3927
ടുന്ന	-10.3928
▁സ്ക്രീ	-10.3929
▁sada	-10.393
ు	-10.3934
▁adichit	-10.3936
▁ichayan	-10.3937
▁okk	-10.3937
▁COM	-10.3942
aye	-10.3943
▁സഹായ	-10.3949
കൾക്ക്	-10.3952
▁മുന്ന	-10.3953
ുകളുടെ	-10.3955
nga	-10.3956
▁32	-10.3964
sc	-10.3976
anda	-10.3976
ikum	-10.3977
▁ഇനിയ	-10.3978
aasha	-10.3986
▁veend	-10.3988
🤩🤩🤩	-10.3991
entho	-10.3992
▁wi	-10.401
▁വരാ	-10.4012
▁compa	-10.4013
ME	-10.4016
സം	-10.4019
kamayirunnu	-10.402
hing	-10.4028
▁മഞ്ജുവ	-10.4028
▁fam	-10.4028
▁കൊല്ലമ	-10.4032
Trailer	-10.4037
▁Apo	-10.4043
▁eg	-10.4054
▁Dar	-10.4055
▁Li	-10.4057
aaaaaaaaaa	-10.4059
▁pedich	-10.406
▁ചെയ്യുന്നു	-10.4067
luv	-10.4074
av	-10.4076
06	-10.4079
▁irangiya	-10.4085
runu	-10.409
🤣🤣🤣🤣	-10.4094
▁tria	-10.4099
kanda	-10.4103
▁lot	-10.4114
▁inga	-10.4116
▁ond	-10.4117
▁chai	-10.4119
▁kumar	-10.412
▁Patti	-10.4129
▁maran	-10.4131
dichu	-10.4135
▁ji	-10.4136
▁ennitt	-10.4138
▁mamm	-10.4138
inj	-10.4142
▁Matt	-10.4143
os	-10.4144
▁POLI	-10.4144
vinte	-10.4148
▁അന	-10.4153
Mammookka	-10.4154
ngi	-10.4156
▁Is	-10.4157
njan	-10.4167
▁nok	-10.4171
▁പു	-10.4176
Mamangam	-10.4178
▁abraham	-10.4181
;	-10.4184
▁നട	-10.4186
ا	-10.4186
▁kandilla	-10.4186
LUCIFER	-10.4189
Royal	-10.419
inni	-10.4191
▁fanz	-10.4191
▁kod	-10.4191
▁dileepetta	-10.4198
കൊല്ല	-10.42
mple	-10.4202
▁vaayikk	-10.4202
acha	-10.4203
yavar	-10.4203
▁സൈ	-10.4206
ap	-10.4211
എല്ലാ	-10.4213
▁ഇന്ത	-10.4216
allallo	-10.4217
▁ther	-10.4222
ിൻ	-10.4222
▁കോട്ടയത്ത	-10.4223
..#	-10.423
▁kallan	-10.4232
rime	-10.4243
ചാക്കോ	-10.4244
ES	-10.4247
▁പെ	-10.4247
IVIN	-10.4251
jathi	-10.4251
▁കി	-10.4252
▁🤗🤗🤗	-10.4259
▁vell	-10.426
tharam	-10.4262
▁ക്ല	-10.4263
sss	-10.4263
▁കണ്ണെ	-10.4266
▁എടുക്കാ	-10.4268
▁എന	-10.4273
▁any	-10.4273
thra	-10.4285
മ്പോ	-10.4285
കാൻ	-10.4287
ജി	-10.429
ാണല്ലോ	-10.4295
റിൽ	-10.4297
▁കയറിയ	-10.43
▁End	-10.4302
▁varunnath	-10.4303
▁കമന്റ	-10.4305
ന്ത	-10.4309
▁nokkunnath	-10.4315
▁ജയറാമ	-10.4317
▁ഇട്ടിമാണിക്ക	-10.4318
▁Ennaa	-10.432
▁inda	-10.4323
▁rol	-10.4328
▁He	-10.433
▁ചങ്കിന	-10.4331
▁മാറിയ	-10.4332
▁മിസ്സ	-10.4333
aayirunnu	-10.4336
▁bhasha	-10.4347
▁അതാ	-10.4352
▁illaaaa	-10.4354
ന്മാരെ	-10.4356
▁ninga	-10.4359
rappullavar	-10.436
un	-10.4361
▁ജോർജ	-10.4364
▁ayitt	-10.4365
THE	-10.4378
▁ചെയ്തേ	-10.4384
ilim	-10.4395
▁ikk	-10.4403
▁Adich	-10.4406
TE	-10.4408
▁Marakka	-10.4413
▁mel	-10.4418
▁fanss	-10.4419
illatha	-10.4421
▁Joshi	-10.4423
ജ്ജാതി	-10.4425
▁🤩🤩🤩🤩	-10.4427
▁angana	-10.4429
▁തകർത്ത	-10.4429
▁game	-10.443
▁Ro	-10.4436
▁achan	-10.4437
umayi	-10.4438
🤟	-10.444
்	-10.444
ಯ	-10.444
¥	-10.444
د	-10.444
▁Character	-10.444
▁campus	-10.444
▁കുങ്ഫു	-10.444
▁കോമ്പിനേഷ	-10.444
▁ഡീഗ്രേഡ	-10.444
▁നന്ദി	-10.444
▁മോളിവുഡി	-10.444
▁രജനി	-10.444
🤨	-10.444
▁Voice	-10.444
▁asooya	-10.444
▁എന്നുറപ്പുള്ളവർ	-10.444
▁സുരേഷ	-10.444
▁MAMMUKKA	-10.444
▁Memories	-10.444
▁ക്ഷമിക്കണം	-10.444
▁രാജാധിരാജ	-10.444
▁gangster	-10.444
▁Omg	-10.444
▁Nyla	-10.444
▁lvl	-10.444
▁memories	-10.444
▁ശോകം	-10.444
▁ഫോട്ടോ	-10.444
▁ലോഡിങ്	-10.444
▁salman	-10.444
▁stylish	-10.444
▁place	-10.4441
▁engineer	-10.4441
▁budget	-10.4441
▁shortfilm	-10.4441
▁senti	-10.4441
▁MEGA	-10.4441
photo	-10.4441
▁urappulavar	-10.4441
▁ഫൈറ്റ്	-10.4441
▁അവതരിക്കണം	-10.4441
▁ഇംഗ്ലീഷ	-10.4441
▁ഇങ്ങെടുക്കുവാ	-10.4441
▁ട്രോൾ	-10.4441
▁പൊക്കോ	-10.4441
▁കോള	-10.4441
▁തെളിയിച്ചു	-10.4442
▁പൊളയ്ക്ക	-10.4442
▁anubhavam	-10.4442
▁Anurag	-10.4442
▁462	-10.4442
▁Still	-10.4442
▁kurch	-10.4442
▁മാത്രേ	-10.4442
▁പടമാണെന്ന്	-10.4442
▁before	-10.4442
▁നന്നായിരിക്കും	-10.4442
▁കുഞ്	-10.4442
▁think	-10.4443
▁warrier	-10.4443
▁അച്ഛൻ	-10.4443
▁rajini	-10.4443
▁ആശംസിക്കുന്നു	-10.4443
▁ലെവലാണ്	-10.4444
▁മാർഗ്ഗം	-10.4444
▁അയ്യേ	-10.4444
▁ഉണ്ടാ	-10.4445
▁കണ്ടവരുണ്ടോ	-10.4445
▁Shine	-10.4445
▁kochi	-10.4445
▁spr	-10.4445
▁adukki	-10.4445
▁mukalil	-10.4445
▁lalattan	-10.4446
▁recordukal	-10.4446
▁ഓളം	-10.4446
▁പ്രതീക്ഷിക്കാം	-10.4447
▁irkk	-10.4448
▁ഞെട്ടിച്ചു	-10.4448
▁naalayi	-10.4448
▁subtitles	-10.4448
▁മാസ്സാണ്	-10.4448
▁വല്ല്യ	-10.4448
▁കലിപ്പ്	-10.4448
▁maarakam	-10.4449
▁പ്രത്യേകിച്ച	-10.4449
▁Mamooty	-10.4449
▁ബക്ക	-10.445
▁പണ്ടേ	-10.4451
▁കിരീട	-10.4451
▁akathirunna	-10.4451
▁തീർച്ചയായ	-10.4452
▁egane	-10.4454
▁സത്യ	-10.4454
▁santhosham	-10.4454
▁ഉറപ്പാണ്	-10.4455
▁shariya	-10.4455
▁nerunnu	-10.4456
▁Spr	-10.4456
▁അഹങ്കാരം	-10.4456
▁കൊച്ചു	-10.4456
▁അഭിനയവും	-10.4457
▁ഹൊ	-10.4457
▁കണ്ടപ്പോഴ	-10.4457
ോളികൾ	-10.4457
പാടി	-10.4458
▁കാണിക്കുന്നത്	-10.4458
▁kandavarundo	-10.4458
▁പ്രതീക്ഷകൾ	-10.4459
▁രാജുവേട്ടാ	-10.4459
▁കുറേ	-10.446
▁avasanam	-10.4462
▁maranna	-10.4463
▁cash	-10.4463
▁WITH	-10.4463
▁pogu	-10.4463
▁രസ	-10.4463
▁ഇഷ്ട്ടം	-10.4464
▁~	-10.4464
▁```	-10.4465
▁STRONG	-10.4465
▁പാടില്ല	-10.4465
▁UYIR	-10.4466
▁disaster	-10.4466
▁master	-10.4467
▁കുർബ	-10.4467
▁കിലോ	-10.4467
ഡ	-10.4468
▁കിട്ടിയത്	-10.4468
▁രസം	-10.4469
▁മിക	-10.447
▁kalki	-10.4471
▁വേറേ	-10.4472
▁producer	-10.4474
▁പണ്ടാര	-10.4475
▁നിങ്ങൾക്കു	-10.4475
▁visuals	-10.4476
▁ഇഷ്ടപ്പെട്ടു	-10.4477
▁Mammookkka	-10.4478
▁രാത്രി	-10.4478
▁vaada	-10.4479
▁list	-10.4479
▁കിടുക്കും	-10.448
▁അടിക്കാം	-10.4482
▁paru	-10.4483
uuuu	-10.4484
▁industrik	-10.4485
▁raaja	-10.4489
▁Njaan	-10.4492
▁കേൾക്കാ	-10.4497
ROM	-10.4497
കിലും	-10.4501
▁చ	-10.4502
▁varilla	-10.4503
▁othu	-10.4503
▁ഉസ്മാനെ	-10.4504
wonder	-10.4504
മെന്റ്	-10.4504
▁rajavu	-10.4504
▁parayanda	-10.4505
▁kittiyavar	-10.4507
▁വാരി	-10.4507
▁vekka	-10.4509
▁aaavum	-10.451
▁സ്നേഹം	-10.451
▁sho	-10.4512
▁IN	-10.4512
▁ബ്രോ	-10.4512
▁shots	-10.4514
▁him	-10.4516
pritviraj	-10.4516
ന്നാ	-10.4517
▁Kalakki	-10.4517
▁undakiya	-10.4518
▁nikkan	-10.4518
▁manas	-10.4519
▁Pri	-10.4519
▁Xmas	-10.4521
▁Joshiy	-10.4524
▁varumo	-10.4526
▁തന്നു	-10.4526
▁To	-10.453
▁inter	-10.4531
▁ഏറ്റു	-10.4533
▁Laleetan	-10.4535
▁Tril	-10.4536
14	-10.4537
▁Viswas	-10.454
▁Ja	-10.4541
▁Tha	-10.4546
▁പൊളക്കാ	-10.4546
▁വെറുപ്പ	-10.4546
▁bar	-10.4547
sorry	-10.4548
▁ikkaaaaa	-10.4548
▁Chine	-10.4549
yash	-10.455
▁ഫാന്‍സ	-10.455
▁reply	-10.4551
▁ഇങ്ങേർ	-10.4551
▁kolakolli	-10.4552
▁സ്റ്റ	-10.4555
▁ഇച്ചായ	-10.456
▁പാല	-10.456
▁ചേച്ചിയ	-10.4561
▁Madhur	-10.4563
▁aaayi	-10.4566
▁അപ്	-10.457
▁ennulla	-10.4572
ടോ	-10.4573
▁indo	-10.458
▁kaanun	-10.4581
▁താൻ	-10.4584
poomara	-10.4584
usifer	-10.4584
▁year	-10.4587
kumbol	-10.4589
▁inne	-10.4591
▁കുടുംബത്തില	-10.4593
▁poliyum	-10.4593
▁pettu	-10.4594
ര്	-10.4595
▁കുറവാണ	-10.4595
▁പോണ	-10.4596
▁sundar	-10.46
▁🥳	-10.4601
▁odikko	-10.4603
etic	-10.4605
▁അനിയൻ	-10.4606
▁poly	-10.4607
▁Anyway	-10.4608
▁കാര	-10.4611
▁actors	-10.4611
▁ഡ്രൈവിങ	-10.4613
▁എന്നുള്ളവർ	-10.4616
▁വിജയൻ	-10.4617
gf	-10.4619
▁പടങ്ങള	-10.4622
▁ബ്ലോ	-10.4623
▁por	-10.4625
arude	-10.4625
▁പൊളിയാ	-10.4625
▁pore	-10.4628
▁ekka	-10.4628
▁നടു	-10.4631
▁kelkumbo	-10.4637
▁അസ	-10.4639
▁Thi	-10.4639
▁എന്തൊക്കെ	-10.4641
ാക്കിയ	-10.4642
▁നൽകാ	-10.4647
▁🥰🥰🥰	-10.4647
▁ജീവിതത്തി	-10.4649
▁pakuthi	-10.4652
▁irang	-10.4653
kalkk	-10.4655
▁ആട്	-10.4655
▁പൊളിയാണ	-10.4659
▁ആയിട്ട	-10.466
▁പച്ച	-10.4661
▁mavane	-10.4661
▁ottum	-10.4662
▁stronga	-10.4662
▁school	-10.4667
▁ചാവേറ	-10.4672
ുമല്ലോ	-10.4676
▁Illa	-10.4679
▁നിർമിച്ച	-10.468
▁app	-10.4687
▁പാട്ട	-10.4691
▁ഏറ്റ	-10.4693
▁മറ്റുള്ള	-10.4698
▁Chettan	-10.4699
unnathinu	-10.4705
▁luv	-10.4709
til	-10.4711
▁Star	-10.4714
▁മോഹൻലാല	-10.4718
tamil	-10.4719
▁ezhuth	-10.472
ade	-10.472
▁ബോബ	-10.4723
▁1.3	-10.4726
ney	-10.4726
▁ഇടം	-10.4729
▁orru	-10.473
oub	-10.473
▁mambazham	-10.4735
ppozhum	-10.4736
▁out	-10.4741
adu	-10.4745
സി	-10.475
▁അബ	-10.4751
▁ആദ്യത്ത	-10.4752
▁oombiy	-10.4759
▁Man	-10.4761
ayitt	-10.4763
ിക്കുന്നത്	-10.477
▁Fa	-10.4772
▁Aanu	-10.4776
▁pull	-10.4778
▁Nee	-10.4781
▁Che	-10.4784
....!	-10.479
ിയർ	-10.4791
▁vettich	-10.4794
aranam	-10.4795
▁ചേച്ചിക്ക	-10.4796
▁പഴ	-10.4802
▁Paav	-10.4804
▁പലത	-10.481
▁oruthan	-10.4813
▁adh	-10.4815
▁ആയത	-10.4815
▁vijayikkum	-10.4815
▁കരിയ	-10.4829
▁Bab	-10.4842
▁ഞമ്മള	-10.4843
maar	-10.4847
▁dil	-10.485
et	-10.486
▁ഉപയോഗിച്ച	-10.4868
angu	-10.4868
▁laal	-10.4869
AL	-10.4874
മ്യൂ	-10.4876
Villain	-10.4877
oora	-10.4878
▁ഒഴി	-10.4881
▁pillaru	-10.4883
രോ	-10.4883
പ്പോഴേ	-10.4883
ikk	-10.489
▁poka	-10.4892
കടത്തി	-10.4899
have	-10.4902
sham	-10.491
▁math	-10.4912
▁aayal	-10.4913
▁അഭിനയിക്ക	-10.4915
ws	-10.4918
▁deep	-10.4922
▁മലയാളത്ത	-10.4922
LOG	-10.4925
▁തിന്	-10.493
▁KA	-10.4935
can	-10.4936
ho	-10.4937
▁vazh	-10.494
athanu	-10.494
met	-10.4941
▁മാണി	-10.495
▁polulla	-10.4953
▁entammo	-10.4953
കളിലെ	-10.4957
HOO	-10.4959
▁മറ്റു	-10.4967
▁Us	-10.4968
ധി	-10.497
ന്റെയും	-10.4971
▁Se	-10.4976
ന്മാർ	-10.4977
▁മലയാളത്തിന്	-10.4982
▁pokunnath	-10.4982
▁അടിക്ക	-10.4987
പ്പെട്ട	-10.4991
▁saam	-10.5005
rate	-10.5006
aja	-10.5007
▁itu	-10.5008
▁mans	-10.5009
▁Kannan	-10.5011
▁evida	-10.5013
▁പ്രതീക്ഷയ	-10.5016
▁തകർക്ക	-10.5021
ts	-10.5022
▁Entammo	-10.5023
INI	-10.5025
നൊരു	-10.5026
▁എന്	-10.5026
▁Appol	-10.5036
▁NO	-10.5037
▁hu	-10.5038
eda	-10.5038
yirunnu	-10.5041
lim	-10.5042
▁യ	-10.5043
ppol	-10.5044
ബി	-10.5048
▁നടക്ക	-10.505
▁2.0	-10.5055
gill	-10.5056
▁ഉദ	-10.5059
kkam	-10.5059
▁li	-10.5061
▁Nall	-10.5063
▁ആണെങ്കില	-10.5064
▁theern	-10.5065
▁ഒരോ	-10.5069
akathu	-10.5075
▁ശരി	-10.5078
▁Rat	-10.5079
▁itticha	-10.5086
▁Direct	-10.5086
▁Cap	-10.5093
▁pokko	-10.5094
ja	-10.5098
▁ആകുന്ന	-10.5101
▁Har	-10.5106
ഡിൽ	-10.5106
▁kann	-10.5109
▁Prom	-10.5113
ali	-10.5115
▁60	-10.5123
▁രാജുവേട്ടനെ	-10.5128
്വാ	-10.5132
ുകയാണ്	-10.5146
▁uru	-10.5153
▁കാഴ്ച	-10.5155
▁tr	-10.5156
▁basi	-10.5158
▁somet	-10.5165
▁abhinayicha	-10.5167
കാനുള്ള	-10.5172
▁ഒട്ട	-10.5173
▁ingan	-10.5175
▁തോന്നിയ	-10.5183
ek	-10.5185
akaram	-10.519
▁itte	-10.5193
▁HB	-10.5198
▁എട്ടൻ	-10.5206
ollu	-10.5209
llum	-10.5215
▁ക്രിസ്	-10.522
▁Mutt	-10.5221
adam	-10.5221
▁pratheekshich	-10.5223
▁ADI	-10.5226
▁ayirunnu	-10.5231
▁ആർ	-10.5233
sunder	-10.5237
▁maraka	-10.524
▁myran	-10.524
▁മുതല	-10.5242
▁chut	-10.5246
▁2:2	-10.5253
▁Co	-10.5265
🥰🥰	-10.5266
ikkunnu	-10.527
ലേ	-10.5274
തവണ	-10.5274
ppo	-10.5275
▁upayog	-10.5278
ED	-10.5283
▁mi	-10.5284
വി	-10.5286
▁thonuna	-10.5287
▁മൂത്തോന	-10.5289
▁അഭിപ്രായ	-10.5299
▁Mic	-10.5302
▁ചോദിക്ക	-10.5308
▁ullo	-10.531
▁pokunnu	-10.5313
▁nadana	-10.5314
▁ടാ	-10.5321
▁thomas	-10.5323
▁appa	-10.5324
▁ചിരിച്ച	-10.5326
വരൊക്കെ	-10.5329
▁pottikan	-10.5333
ent	-10.5335
▁idhu	-10.5336
▁ഫിലിമ	-10.5346
▁പോയാ	-10.5348
▁korach	-10.5356
▁veru	-10.5361
▁ci	-10.5361
▁Ambooo	-10.5364
▁namm	-10.537
▁യും	-10.5379
▁madi	-10.5384
ണ്ടോ	-10.5384
▁kaathirikkunna	-10.5386
▁ozhich	-10.539
▁adicho	-10.5392
iyan	-10.5393
▁ഇൻഡസ്ട്രി	-10.5396
▁nere	-10.54
ിൻറെ	-10.5401
rachi	-10.5407
▁Ipo	-10.5413
iku	-10.5413
▁ninne	-10.5415
▁വന്നതാ	-10.542
▁Di	-10.5421
▁ashamsakal	-10.5421
▁mathrame	-10.5424
▁je	-10.5426
▁നേട	-10.5428
bd	-10.5441
▁PA	-10.5443
SHA	-10.5448
▁SH	-10.5448
▁ആണേ	-10.5454
▁ഉണ്ടെ	-10.5477
▁Maass	-10.5478
▁polund	-10.5479
▁ooo	-10.5491
൪	-10.5494
▁ennok	-10.5496
ിജോ	-10.5501
irunnel	-10.5506
▁kanand	-10.5508
▁സ്വാ	-10.551
▁26	-10.5513
ുണ്ടോ	-10.5517
udi	-10.5519
▁maa	-10.552
തിനു	-10.552
▁thudang	-10.5521
▁vall	-10.5531
▁ടു	-10.5533
▁pande	-10.5535
▁Par	-10.5536
▁aak	-10.5536
▁cheyunna	-10.554
▁mix	-10.554
▁ponoo	-10.5547
ndo	-10.555
യത്	-10.5552
▁മൂന്ന	-10.5557
▁ponnoooo	-10.5564
ry	-10.5568
ർക്കും	-10.5569
anavo	-10.5571
ft	-10.5572
▁end	-10.5572
▁kaal	-10.5576
poli	-10.5579
▁vijaricha	-10.5581
മായിരിക്കും	-10.5582
vidha	-10.5589
lay	-10.559
unnilla	-10.5593
▁poora	-10.5598
ജാതി	-10.5598
▁അവള	-10.5605
ella	-10.5611
▁vid	-10.5614
▁yo	-10.5622
hrs	-10.5623
▁കോട്ട	-10.5637
dak	-10.5647
▁rakshe	-10.565
▁varunnund	-10.5652
▁kalikk	-10.5655
ല്പ	-10.5655
yl	-10.5655
..??	-10.5657
പടം	-10.5671
ass	-10.5671
gg	-10.5673
▁ദ	-10.5681
▁ക്വ	-10.5686
▁ആഘോഷ	-10.5686
▁polichuuuu	-10.5688
▁aadhyam	-10.57
anji	-10.5705
▁Kidukki	-10.5708
രുന്നു	-10.5709
▁Kodu	-10.5709
▁Ambo	-10.571
▁oodi	-10.5714
തോ	-10.5717
..........	-10.572
tus	-10.5721
ികൾ	-10.5726
IKKA	-10.5727
സ്സ	-10.5729
aaya	-10.5732
മ്പി	-10.5733
തം	-10.5737
yuda	-10.5737
nji	-10.5738
osham	-10.5746
▁കാണാന	-10.5747
mammookka	-10.5747
eni	-10.5748
എന്ന്	-10.5748
ാഭ്	-10.575
Ikka	-10.5753
▁പുറത്ത	-10.5758
▁ടോ	-10.5759
▁ഷൂട്ട	-10.5764
RIV	-10.5767
▁Gu	-10.5769
▁yaaru	-10.5774
🤐	-10.5777
▁matti	-10.578
▁aakumenn	-10.5787
▁എഴുതിയ	-10.5788
▁eppol	-10.5789
▁marupadi	-10.5789
മമ്മൂക്ക	-10.5796
ിക്കും	-10.5799
ജന	-10.58
▁alo	-10.5806
dialogue	-10.5809
▁pottikk	-10.5809
▁കേരളത്തി	-10.5814
▁നടി	-10.5817
ജോഷി	-10.5825
18	-10.5826
athupole	-10.583
CH	-10.583
ND	-10.5832
malayalam	-10.5832
mammukka	-10.5833
▁വരവിന	-10.5836
mber	-10.5836
▁വരു	-10.5841
MAMMOOKKA	-10.5842
സെറ്റ	-10.5845
set	-10.5847
ജോബി	-10.5848
കൂടുതൽ	-10.5849
MASS	-10.5852
DAY	-10.5853
സുരാജ്	-10.5854
ചെമ്പൻ	-10.5856
megastar	-10.5856
മവനെ	-10.5857
pooram	-10.5858
▁theri	-10.5859
▁aanoo	-10.5859
brother	-10.5859
ദ്ധ	-10.5859
crore	-10.5861
▁pro	-10.5864
▁avar	-10.5865
▁kunna	-10.5865
koo	-10.5868
▁paul	-10.5868
AGE	-10.5869
ഉം	-10.5876
ണെന്ന്	-10.5877
റോ	-10.588
anennu	-10.5885
▁ബോസ്	-10.5885
appol	-10.5888
yu	-10.5888
ഭ	-10.5914
െയ്	-10.5917
0%	-10.5926
🤘🤘🤘🤘	-10.593
▁നടത്ത	-10.5935
▁ul	-10.5939
ood	-10.5941
▁manasilav	-10.5943
പോയി	-10.5945
ust	-10.5946
▁സമ	-10.5953
▁Villa	-10.5954
vinu	-10.596
▁കണ്ടിട്ട	-10.5962
oola	-10.5963
▁അമ്പ	-10.5963
▁mansil	-10.5972
▁കള	-10.5975
nathinu	-10.5977
▁aayilla	-10.5978
തിരിക്കാൻ	-10.5985
aal	-10.5989
▁സച്ചി	-10.599
▁ജന	-10.599
▁മോഹൻലാലിന	-10.5993
▁വാട	-10.5995
▁പാ	-10.5997
▁prethi	-10.5997
▁annn	-10.6001
▁enni	-10.6005
▁കൈയ	-10.6014
▁sangi	-10.6015
▁കാണുന്നു	-10.6018
ل	-10.6019
▁ഇങ്	-10.6022
▁പറയുമ്പോ	-10.6022
▁nammaku	-10.6022
ടെയും	-10.6023
▁!!!!!!!	-10.6024
▁Thu	-10.6035
▁kaala	-10.6038
ന്നാൾ	-10.6041
▁ചൈന	-10.6043
▁മാത്ര	-10.6044
▁വിസ്മയ	-10.6046
▁Lalet	-10.6047
എന്നാ	-10.605
കല	-10.6053
▁നിർത്തി	-10.6058
്യയുടെ	-10.6061
േണ്ട	-10.6062
▁varumbo	-10.6063
▁താണ	-10.6067
▁Ing	-10.6068
appuram	-10.6068
ally	-10.6069
ബോൾ	-10.6072
own	-10.6073
മുള്ളവർ	-10.6074
▁Andh	-10.6075
▁വീണ്ടു	-10.6076
▁വ്യ	-10.608
▁aadya	-10.608
യ്ക്കും	-10.6081
▁thar	-10.6081
▁legend	-10.6085
▁adikunna	-10.6092
HIS	-10.6094
tiga	-10.6095
ക്കാരൻ	-10.6096
irikkunnu	-10.6096
▁വെല്ലുവിളി	-10.6099
ukundan	-10.61
▁ഈശ്വര	-10.6103
▁മച്ചാൻ	-10.6105
▁.........	-10.6106
▁ദൈവ	-10.6106
▁പ്രിത്വി	-10.6107
ా	-10.6107
ح	-10.6107
English	-10.6107
PLEASE	-10.6107
é	-10.6107
ى	-10.6107
ే	-10.6107
ṭ	-10.6107
▁Joseph	-10.6107
▁LOADING	-10.6107
▁MAMMOOKA	-10.6107
▁POLIYANE	-10.6107
▁TEASER	-10.6107
▁TamilNadu	-10.6107
▁Usmaane	-10.6107
▁response	-10.6107
▁sasarika	-10.6107
▁ഇടിവെട്ട്	-10.6107
▁ഒറിജിന	-10.6107
▁കൂട്ടുകെട്ട്	-10.6107
▁താൽപര്യ	-10.6107
▁ലൈസന്‍സ	-10.6107
▁സുഷിൻ	-10.6107
🤞	-10.6107
▁kadhapathram	-10.6107
▁അണിയറ	-10.6107
▁പൂജപ്പുര	-10.6107
▁ഷറഫുദ്	-10.6107
▁STAR	-10.6107
jpg	-10.6107
▁vethyas	-10.6107
▁സംഗതി	-10.6107
▁പകുതി	-10.6107
▁VIEW	-10.6107
▁beaut	-10.6107
▁ഒന്നിനൊന്ന	-10.6107
▁DUB	-10.6107
▁ഡ്രാമ	-10.6107
▁expression	-10.6107
▁pradesh	-10.6107
▁perumbavo	-10.6107
▁manikkoor	-10.6107
▁irruku	-10.6107
ಲ್	-10.6107
▁Bhasi	-10.6107
▁ശീലം	-10.6107
▁actress	-10.6107
▁ഒരൊറ്റ	-10.6107
▁irikkatte	-10.6107
▁ലിസ്റ്റി	-10.6107
▁Flop	-10.6107
▁Again	-10.6107
▁Wishes	-10.6107
▁vedikett	-10.6107
▁Mohandas	-10.6107
CTOR	-10.6107
▁പാപ്പാ	-10.6107
▁kochunni	-10.6107
▁കണക്കാ	-10.6108
▁Thriller	-10.6108
▁സ്നേഹിക്കുന്ന	-10.6108
▁ninghal	-10.6108
▁ആകണേ	-10.6108
▁തീർച്ച	-10.6108
▁പോകരുത്	-10.6108
▁എഡിറ്റർ	-10.6108
▁വിഡിയോ	-10.6108
▁ഹെഡ്	-10.6108
▁annakkil	-10.6108
▁getup	-10.6108
irundha	-10.6108
▁title	-10.6108
▁flag	-10.6108
▁vijayashamsakal	-10.6108
▁ഉണ്ടാകട്ടെ	-10.6108
▁pothirachi	-10.6108
▁നേടിയ	-10.6108
▁പറ്റുവോ	-10.6108
▁Kili	-10.6109
▁Maduraraja	-10.6109
▁ഉഫ്	-10.6109
▁പൊരിക്കും	-10.6109
▁മച്ചാനെ	-10.6109
▁വിജയിക്കട്ടെ	-10.6109
▁varrier	-10.6109
▁സാധനം	-10.6109
▁വന്നേക്കുന്നു	-10.6109
World	-10.6109
▁Semma	-10.6109
green	-10.611
▁undakkiya	-10.611
▁മാസ്റ്റർ	-10.611
▁മൂവിയുമായി	-10.611
▁ചിത്രങ്ങൾ	-10.611
▁സ്റ്റേജ	-10.611
▁0:53	-10.611
▁abhimanam	-10.611
ಮಾ	-10.611
▁നോക്കണ്ട	-10.6111
▁BIR	-10.6111
▁1:03	-10.6111
▁block	-10.6111
▁അദ്ദേഹ	-10.6111
▁abhinayikkan	-10.6111
▁ഫാനാണ്	-10.6112
▁ചോദിച്ചാൽ	-10.6112
▁shooting	-10.6112
▁rocking	-10.6112
▁പൊളിയല്ലേ	-10.6112
▁തീർക്കാൻ	-10.6112
▁SIR	-10.6112
▁നോക്കൂ	-10.6112
▁ഈശ്വരാ	-10.6113
▁അടിക്കൂ	-10.6113
▁ചങ്ങ	-10.6113
▁thudagi	-10.6113
▁Mammutti	-10.6113
▁കൊടുക്കണം	-10.6113
▁അയ്യോ	-10.6113
▁ഇവളുടെ	-10.6113
▁വരവാണ്	-10.6114
▁കാണുന്നുണ്ട്	-10.6114
▁ഉണ്ടാവും	-10.6114
▁മതിയാവ	-10.6115
▁Santa	-10.6115
▁epic	-10.6115
▁varshathe	-10.6115
▁ബാന്റ്	-10.6115
__	-10.6116
▁aayath	-10.6116
PATH	-10.6116
▁കർത്താവെ	-10.6116
market	-10.6116
▁nadanmar	-10.6116
▁മനസിലായില്ല	-10.6116
UE	-10.6116
▁penkutty	-10.6117
▁അതുപോലെ	-10.6117
▁color	-10.6117
▁Romam	-10.6117
▁kodutha	-10.6118
▁തോന്നുന്നേ	-10.6119
▁bday	-10.6119
▁Ohh	-10.6119
killa	-10.6119
▁lift	-10.6119
▁adikkeda	-10.6119
▁hein	-10.6119
▁ജൂനിയ	-10.6119
▁selection	-10.612
▁ആരാടാ	-10.612
▁Malappura	-10.612
▁missing	-10.612
90	-10.6121
▁പൊളിച്ചടുക്കി	-10.6121
▁Here	-10.6122
0.39	-10.6122
▁mamankam	-10.6122
▁cheyunne	-10.6122
▁ഇഷ്ടമാണ്	-10.6122
▁കാണില്ല	-10.6122
▁പറ്റുമോ	-10.6123
▁കേട്ടോ	-10.6123
PE	-10.6123
▁karanju	-10.6123
tional	-10.6124
▁കാത്തിരുന്നത്	-10.6125
▁Baby	-10.6125
▁urappayi	-10.6125
irthday	-10.6125
▁Action	-10.6125
▁shirt	-10.6126
▁എണ്ണം	-10.6126
▁triler	-10.6126
▁നമ്മള	-10.6127
▁porikkum	-10.6128
▁ഫഹദി	-10.6128
▁Kodi	-10.6128
▁kanunnath	-10.6128
▁കുറവ്	-10.6128
ാൾ	-10.6129
▁novel	-10.613
▁തിരിച്ചുവരവ്	-10.613
▁undaaya	-10.6131
▁prayathilum	-10.6132
▁സ്പ	-10.6132
▁Mammookkaaa	-10.6132
▁VO	-10.6133
▁kondupoyi	-10.6133
▁ninta	-10.6133
kkanam	-10.6133
▁screenil	-10.6134
▁sank	-10.6134
▁ലാലേട്ട	-10.6134
▁head	-10.6135
▁من	-10.6136
▁awesome	-10.6136
▁Assas	-10.6136
▁ലേഡീ	-10.6136
▁special	-10.6136
▁Youtube	-10.6137
▁original	-10.6137
▁jayasurya	-10.6137
▁കാര്യമില്ല	-10.6137
▁ഇറുക്ക്	-10.6138
▁writer	-10.6138
▁Bhai	-10.6138
▁kaananam	-10.6138
▁mean	-10.6138
▁കിടുവേ	-10.6138
▁Nigal	-10.6139
▁rajani	-10.6139
▁give	-10.6139
▁അഭിമാനം	-10.6139
▁aarikkum	-10.6139
▁puthan	-10.6139
▁maduraraja	-10.6139
▁mariyam	-10.614
INTE	-10.614
▁Sri	-10.6141
▁crew	-10.6141
▁ലക്ഷം	-10.6141
▁december	-10.6143
▁കണ്ടിട്ടുണ്ട്	-10.6143
▁bus	-10.6144
▁ഇല്ലല്ലോ	-10.6144
▁വേണ്ടേ	-10.6144
WAY	-10.6145
▁june	-10.6145
ആൾക്കാർ	-10.6145
▁ടച്ച്	-10.6145
▁ദർശ	-10.6146
▁COMMENT	-10.6148
▁ഗുഹൻ	-10.6149
▁കുറ	-10.615
▁samshay	-10.615
▁padagal	-10.615
▁varatte	-10.6151
▁pogum	-10.6151
IDI	-10.6152
..............	-10.6152
▁parnj	-10.6154
My	-10.6154
▁bl	-10.6154
▁nhi	-10.6155
▁Fahadh	-10.6156
AVE	-10.6157
▁ആരാധക	-10.6157
ാട്ടോ	-10.6157
▁tym	-10.6157
▁irakiya	-10.6158
▁വ്യത്യസ്തമായ	-10.6159
▁പറവ	-10.6161
ക്കാർ	-10.6162
▁most	-10.6162
▁chathi	-10.6162
▁body	-10.6162
▁ക്ലൈമാക്സ്	-10.6164
DIA	-10.6164
▁ഇപ്പോഴേ	-10.6164
▁സീൻസ്	-10.6165
▁vellam	-10.6165
▁vachu	-10.6165
▁pillere	-10.6166
▁എടുക്കും	-10.6167
▁കളരി	-10.6168
▁Dubai	-10.6168
▁povan	-10.6169
PON	-10.6169
▁kitty	-10.6171
▁Marya	-10.6172
▁എനിക്	-10.6174
▁ശ്ര	-10.6178
▁jr	-10.6178
▁manassilaayi	-10.6179
▁poovan	-10.618
▁EVER	-10.6181
▁ദാ	-10.6182
▁Thane	-10.6183
▁സൗബിൻ	-10.6184
▁നാടക	-10.6185
▁നമിച്ചു	-10.6187
1:26	-10.6188
▁maar	-10.6189
▁kumbalangi	-10.6191
▁kanumbozh	-10.6191
വിര	-10.6193
▁nokkam	-10.6193
▁moothon	-10.6193
▁ചോദ്യം	-10.6194
▁erang	-10.6195
▁പോണം	-10.6195
▁adyam	-10.6195
▁cinimayud	-10.6196
ആമേൻ	-10.6196
▁ഒരാള	-10.6197
▁തെളിവ	-10.6198
▁ഓൾ	-10.6198
▁കോപ്പ്	-10.6201
arjun	-10.6202
▁pattunn	-10.6203
▁Comments	-10.6208
▁aahn	-10.6208
▁മനുഷ്യൻ	-10.6209
ായ്	-10.6209
▁koot	-10.6209
▁ഇഷ്ട്ടപ്പെട്ട	-10.6212
▁പൊളിക്ക	-10.6212
▁vee	-10.6216
▁ആളുകൾ	-10.6217
Cash	-10.6219
▁muth	-10.622
▁ahn	-10.6221
enne	-10.6222
▁അണ്ണാക്കി	-10.6222
ുഡ്	-10.6224
▁taan	-10.6225
▁Nth	-10.6226
▁kettit	-10.6226
ls	-10.6227
▁midhun	-10.6229
▁MEGASTAR	-10.623
▁Cinima	-10.623
▁shammi	-10.623
▁ഇനിയു	-10.6235
▁Nalle	-10.6239
▁nooki	-10.6239
▁പറയാം	-10.624
▁വടക്ക	-10.624
▁കസറി	-10.624
▁irakk	-10.624
nno	-10.6242
▁പ്രതീക്ഷിച്ച	-10.6244
▁track	-10.6245
▁orapp	-10.6246
ല്ലാ	-10.6246
dunga	-10.6249
▁തീർത്ത	-10.6251
LY	-10.6251
▁പാട്	-10.6252
▁eneet	-10.6253
▁Cr	-10.6254
▁kozhik	-10.6255
▁ETTAN	-10.6255
▁tara	-10.6255
katte	-10.6257
▁thaaa	-10.6257
▁kanna	-10.6257
▁plan	-10.6258
▁sthi	-10.6259
ని	-10.626
▁EX	-10.6262
▁manakunnu	-10.6263
▁വില	-10.6266
ാന്തര	-10.6267
▁filims	-10.6268
▁shyam	-10.6273
▁manushyan	-10.6273
▁viswas	-10.6277
രാജ	-10.6278
▁സജി	-10.6282
▁mechile	-10.6283
▁ജീവിതത്ത	-10.6288
▁ആരേ	-10.6288
vya	-10.6288
▁kolli	-10.6288
▁രാവണ	-10.6289
▁PRE	-10.6291
▁Ippol	-10.6291
▁Thakarthu	-10.6292
▁paren	-10.6293
iyam	-10.6296
▁HO	-10.6297
▁job	-10.6297
▁etha	-10.6298
▁ben	-10.6299
▁പിള്ളേര്	-10.6299
▁agu	-10.6303
▁adichi	-10.6305
തും	-10.6306
▁Polikum	-10.631
ങ്ങളുടെ	-10.6311
▁pathu	-10.6313
▁Kandavar	-10.6313
aam	-10.6314
▁US	-10.6315
▁മാറിയല്ല	-10.6316
▁tone	-10.6318
aathavar	-10.6319
തല്ല	-10.632
▁കയ്യടി	-10.6321
▁29	-10.6321
▁ettal	-10.6323
▁manasilaay	-10.6325
▁bol	-10.6326
ILL	-10.6326
▁ഹൈ	-10.633
▁pwolik	-10.633
▁gumm	-10.6332
▁surajin	-10.6333
▁aav	-10.6333
▁presen	-10.6335
▁irukan	-10.6346
▁kanunath	-10.6346
▁oh	-10.6351
മാരുടെ	-10.6354
▁allathe	-10.6357
▁ariyatha	-10.6357
▁umma	-10.6359
▁Mamangathin	-10.6373
▁characters	-10.6378
▁athi	-10.6378
▁boy	-10.6379
KKU	-10.638
ത്തിനു	-10.6384
ികളുടെ	-10.6384
▁mughath	-10.6385
▁Me	-10.6385
▁AR	-10.6391
pazha	-10.6394
ika	-10.6396
▁IL	-10.6396
▁🤓	-10.6397
▁katt	-10.6402
▁ped	-10.6405
▁കുരു	-10.6408
▁ا	-10.6408
▁kazhinu	-10.6409
koode	-10.6411
▁manasi	-10.6411
▁TI	-10.6412
▁raha	-10.6416
▁പറഞ്ഞിട്ടു	-10.6418
▁cheyumo	-10.642
venge	-10.6422
mmmm	-10.6428
▁ithinu	-10.6429
പോളി	-10.6433
amily	-10.6438
pettan	-10.644
▁adikam	-10.6441
lee	-10.6443
oppil	-10.6444
avarude	-10.6444
rithiraj	-10.6444
▁mind	-10.6448
▁കം	-10.6448
▁varun	-10.6448
▁ഓടി	-10.6456
akasappatha	-10.646
▁നിലവ	-10.6461
ിട	-10.6462
▁സുന്ദര	-10.6463
പരം	-10.6464
▁kelkkan	-10.6469
▁ഉണ്ടെന്ന	-10.6472
▁പോത്ത	-10.6474
▁നാറി	-10.6476
▁gala	-10.6477
ross	-10.6479
▁വെള്ള	-10.648
▁പിള്ളാര	-10.6482
▁ടി	-10.6483
▁പടക്ക	-10.6484
േത്	-10.649
ado	-10.6493
▁preth	-10.6495
▁noku	-10.6496
▁പ്രതീ	-10.6501
AE	-10.6502
▁പുറക	-10.6503
▁അടിക്കുന്ന	-10.6506
▁lle	-10.6508
കുമ്പോൾ	-10.651
▁adikaan	-10.6511
▁kitta	-10.6512
▁cinemayum	-10.6517
▁അച്ചായന്	-10.6519
▁ava	-10.6523
▁മലയാളികള	-10.6523
akkan	-10.6524
▁perum	-10.6524
▁anta	-10.6526
▁urapa	-10.6527
port	-10.6528
▁അടിക്	-10.653
▁റിപ്പ	-10.6532
unevar	-10.6535
▁ഇറങ്ങുന്നതിന	-10.6536
▁Ayi	-10.6541
▁endho	-10.6541
EW	-10.6548
▁തല്ലി	-10.6549
ata	-10.655
▁bhar	-10.6554
▁aha	-10.6555
GA	-10.6555
▁പടമാണ	-10.6556
▁കാണണമെന്ന	-10.6559
▁thonnunn	-10.6569
▁immad	-10.6572
▁പോലു	-10.6573
nada	-10.6573
▁Laleta	-10.6574
▁vatta	-10.6578
▁soon	-10.6581
േട്ടന്റെ	-10.6584
▁ബ്ല	-10.6585
▁ലുക്ക	-10.6586
ever	-10.6586
▁paranje	-10.6587
anenkil	-10.6588
പ്ര	-10.6592
ളം	-10.6593
▁പിടിക്കാ	-10.6598
omedy	-10.66
▁daa	-10.66
ാകും	-10.6601
▁akan	-10.6604
▁🤙	-10.6605
▁parayunn	-10.6606
▁പിന്നേ	-10.6607
▁പുള	-10.6608
ബു	-10.6609
▁പെട്ടന്ന	-10.6613
exi	-10.6615
യ്ക്കാ	-10.6616
iri	-10.6618
മസ്	-10.6619
▁oduk	-10.662
...............	-10.6624
്യൂഷ	-10.6627
▁lead	-10.6628
▁pratheekshikku	-10.663
▁തള്ളി	-10.6631
inga	-10.6632
illathe	-10.6633
▁lalettaa	-10.6637
▁Energ	-10.6639
arokke	-10.6641
hilum	-10.6642
je	-10.6643
kulam	-10.6645
▁serio	-10.6646
ree	-10.6646
▁rajaye	-10.6651
▁HE	-10.6654
yaa	-10.6654
▁ഇന്നു	-10.6658
കു	-10.6668
ർത്തീട്ട	-10.6671
27	-10.6674
ratheekshikkunnu	-10.6679
▁thonnu	-10.668
ina	-10.6681
▁ഞ	-10.6682
ത്തിരി	-10.6684
▁ജോസഫിനെ	-10.6693
▁Mammuka	-10.6695
▁patty	-10.6697
▁മാറിക്ക	-10.6697
▁thal	-10.6697
▁Paat	-10.6701
▁josh	-10.6702
▁vekkam	-10.6702
▁വരവിനായ	-10.6704
▁neerali	-10.6709
ways	-10.6711
▁Wowww	-10.6711
▁di	-10.6711
idakku	-10.6712
shang	-10.6717
▁fansinu	-10.672
▁ചൈനീസ	-10.6721
▁chaaku	-10.6722
▁ഏതാ	-10.6723
you	-10.6727
▁nth	-10.673
▁orappa	-10.673
itta	-10.6733
▁kanunne	-10.6737
yirikum	-10.6739
arikum	-10.6741
▁1.1	-10.6742
▁തീയറ്ററ	-10.6743
▁kittiy	-10.6747
allatha	-10.6747
▁ട്ടാ	-10.6748
hats	-10.6754
▁thana	-10.6755
വാൻ	-10.6757
േഖ	-10.6761
▁pwolikku	-10.6762
aneef	-10.6763
MUR	-10.6765
▁പാൻസ	-10.6767
▁തന്തയ	-10.6778
▁സുരാജ	-10.678
▁കിട്ടുന്ന	-10.6785
▁vannapol	-10.6788
galum	-10.6791
▁theatreil	-10.6793
▁ell	-10.6794
▁nta	-10.6806
▁ചാടി	-10.6808
apuram	-10.6812
poyi	-10.6814
ാന്‍	-10.6814
▁polikkumm	-10.682
▁kaar	-10.6821
...!!!	-10.6823
ണേൽ	-10.6825
▁കറി	-10.6826
▁നേരത്ത	-10.683
yode	-10.6834
ew	-10.6837
🥰🥰🥰	-10.6837
▁mini	-10.6839
▁ms	-10.6842
▁varu	-10.6846
▁Don	-10.6847
▁മൂത്തോ	-10.6851
▁kalipp	-10.6853
yaan	-10.6855
▁ഇതിനു	-10.686
▁ingana	-10.6861
chundan	-10.6861
▁പോളിയ	-10.6864
▁nadann	-10.6868
▁ഇടയ്ക്ക	-10.6869
▁ellangil	-10.6876
▁parayun	-10.689
aj	-10.6891
▁nov	-10.6892
▁gund	-10.6893
തിലും	-10.691
സ്ഥ	-10.692
ക്ഷ	-10.692
iko	-10.6921
▁vaari	-10.6929
▁rom	-10.6932
▁verunnu	-10.6935
▁vaya	-10.6944
▁ആകുമെന്ന	-10.6945
വലി	-10.6946
▁paad	-10.6947
▁adikuna	-10.695
▁aru	-10.6952
▁kopil	-10.6953
▁സംസാരിക്ക	-10.6955
▁kittiyal	-10.6959
▁സിന	-10.697
ഗം	-10.6972
🤗🤗🤗	-10.6973
▁38	-10.6973
▁ഇഷ്ടപെട്ട	-10.6977
adakki	-10.6977
illaa	-10.6981
zham	-10.6984
ുവോ	-10.6985
▁എന്നാല	-10.6986
▁njetti	-10.6987
▁ചിത്ര	-10.6988
ruku	-10.6989
ark	-10.6992
▁Mar	-10.6993
▁jail	-10.6994
▁adikkk	-10.6996
ങ്ങള	-10.7
▁Idh	-10.7
▁povunna	-10.7008
▁muthaanu	-10.7012
▁patila	-10.7014
▁nadi	-10.7017
...?	-10.7019
▁35	-10.7019
▁കെട്ടി	-10.7024
ഒന്ന	-10.7024
▁ilum	-10.7025
ble	-10.7027
kha	-10.7027
reed	-10.7033
▁മോഡ	-10.7036
▁രണ്ടും	-10.7041
▁നായകന	-10.7043
▁cinimay	-10.7045
inim	-10.7049
▁monne	-10.7055
▁0:1	-10.7056
സ്തം	-10.7061
▁paranjekk	-10.7063
▁korachu	-10.7064
▁edth	-10.7066
▁pacha	-10.707
▁avasan	-10.7074
▁Prath	-10.7075
▁vidu	-10.7075
▁കട	-10.7084
▁ഇരുക്ക	-10.7086
▁varunath	-10.7088
ikkaa	-10.709
▁fe	-10.7094
▁val	-10.7096
AANU	-10.71
▁Ithavan	-10.7102
▁കോല	-10.7104
▁വരുന്നവർ	-10.7113
വല	-10.7114
angi	-10.7117
▁enthaa	-10.7118
▁പഞ്ച	-10.7118
▁അടക്ക	-10.7118
റ്റി	-10.7124
pic	-10.7125
▁makkalee	-10.7128
chirichu	-10.713
moong	-10.7138
▁lalet	-10.7138
kunnilla	-10.7139
adikum	-10.7146
▁Disast	-10.7146
▁namukk	-10.7152
▁Evideyo	-10.7154
▁ithin	-10.7158
▁മത	-10.7161
azhinja	-10.7162
RE	-10.7163
ിട്ടുണ്ടല്ലോ	-10.7164
inod	-10.7168
▁Chun	-10.7169
ayal	-10.717
മം	-10.7171
▁sale	-10.7171
▁kanikk	-10.7172
▁some	-10.7172
▁അവതരിപ്പിക്ക	-10.7177
▁ആരെ	-10.7182
angam	-10.7186
ടും	-10.7186
▁aakiy	-10.7188
▁Ent	-10.7188
▁ആളുകള	-10.7188
▁thalapath	-10.7189
▁ഇറക്കി	-10.7189
akkam	-10.719
▁അയ	-10.7192
▁കേ	-10.7192
▁Vijaya	-10.7192
ier	-10.72
mbo	-10.7204
....?	-10.7205
▁Puth	-10.7206
▁ariyaam	-10.7212
ie	-10.7216
▁Ithipo	-10.7218
ുമില്ല	-10.7219
▁youth	-10.7223
▁athil	-10.7227
പണം	-10.723
▁ആണി	-10.7232
▁മാറ	-10.7233
▁കാണേണ്ട	-10.7237
▁Theat	-10.7242
enda	-10.7244
▁Hind	-10.7245
▁കരുതിയ	-10.725
story	-10.7254
▁hitt	-10.7254
▁ഒടിയന	-10.7256
▁idunna	-10.7261
രണ്ട	-10.7265
▁kathi	-10.7265
ാവുന്ന	-10.7266
ാലേ	-10.7269
unnavr	-10.728
ാതിരിക്കട്ടെ	-10.7281
▁കെട്ട	-10.7281
▁കാണണമ	-10.7283
▁mamanga	-10.7283
ittimani	-10.7285
ാവ	-10.7291
ittichan	-10.7294
Laletta	-10.7295
AA	-10.7297
▁ചെയ്താ	-10.7298
▁6.	-10.7301
eyullu	-10.7308
▁ഉറപ്പായ	-10.731
zhe	-10.7315
▁താര	-10.7317
dh	-10.7318
ottu	-10.7323
tes	-10.7327
arch	-10.7327
oda	-10.7328
AVAR	-10.7334
ION	-10.7343
bl	-10.7343
ലോഡ്	-10.7344
ambazhathile	-10.7345
▁si	-10.7346
▁neru	-10.7347
▁വാങ്ങ	-10.7357
yoo	-10.7358
▁ഫാന	-10.7359
▁aaku	-10.7371
milla	-10.7374
▁peril	-10.7374
▁അഭിമാന	-10.7375
Disast	-10.738
dharana	-10.7387
▁കിടക്കുന്ന	-10.7388
▁നേ	-10.7388
▁chodich	-10.7401
bar	-10.7409
പ്രാവശ്യ	-10.7411
laa	-10.7425
▁Mamanka	-10.7433
▁parayunnath	-10.7441
▁akanam	-10.7445
▁നായക	-10.7452
pani	-10.7456
kkar	-10.7459
▁23	-10.7459
▁പൊട്ടിയ	-10.7462
▁1:1	-10.7466
▁nokkiya	-10.7467
▁shesh	-10.7468
വര്‍	-10.747
▁evda	-10.747
▁പ്രാർത്ഥിക്ക	-10.7472
▁നോക്കുന്ന	-10.7477
ance	-10.7479
+2	-10.7481
▁ആയിര	-10.7489
▁daivam	-10.7493
▁kattil	-10.7494
ുമുണ്ട്	-10.7494
ud	-10.7496
▁അടങ്ങ	-10.7496
▁PWOLI	-10.7497
്ടിലെ	-10.7505
hara	-10.7505
▁ഞമ്മ	-10.7516
▁Mer	-10.7517
▁bi	-10.7518
ക്കരുത്	-10.7522
kalam	-10.7524
▁അൽ	-10.7526
ellum	-10.7527
▁marakkare	-10.7531
ous	-10.7532
▁padi	-10.7533
▁നടക്കുന്ന	-10.7535
▁ethara	-10.754
യിരുന്നു	-10.7543
കാരണ	-10.7547
▁bay	-10.7548
ശ	-10.755
▁യൂത്ത	-10.7552
▁തീയറ്ററി	-10.7556
ാടാ	-10.7561
▁അന്ത	-10.7568
arnu	-10.7577
▁act	-10.758
▁Praya	-10.7581
py	-10.7583
ayakan	-10.7583
uuuuuuuuuuuuuuuu	-10.7601
▁rele	-10.7604
▁പ്രായ	-10.7604
▁karuth	-10.7606
mban	-10.7609
▁1.5	-10.761
vel	-10.7611
▁പിള്ളേര	-10.7613
undu	-10.7619
▁mathiya	-10.7622
▁kandatha	-10.7624
ukkum	-10.7624
dile	-10.7625
▁ethikan	-10.7627
▁vishama	-10.763
▁Mammoot	-10.763
lex	-10.7631
▁hear	-10.7634
asan	-10.7634
inja	-10.7639
oli	-10.7642
EL	-10.7642
kendi	-10.7643
tic	-10.7647
▁ethar	-10.7652
▁Maha	-10.7654
ാസ	-10.7668
▁33	-10.7669
▁കൊടു	-10.7672
▁adipoliya	-10.7674
▁നൈ	-10.7674
ette	-10.7677
▁ചോദിച്ച	-10.7678
ീന	-10.7682
▁നാ	-10.7685
▁Vish	-10.7686
ആണ്	-10.7688
▁Ta	-10.7689
▁സാറിന	-10.7689
ikunnavar	-10.7691
gane	-10.7692
▁keee	-10.7698
done	-10.7698
▁ikkka	-10.7698
arthikkunnu	-10.7702
vineeth	-10.7705
ETTA	-10.7706
daaa	-10.7714
anavum	-10.7715
ubin	-10.7717
🤔🤔🤔	-10.7717
kumar	-10.7718
ണേ	-10.772
▁ഉറ	-10.772
▁പ്രവർത്ത	-10.7722
arunnu	-10.7723
▁Sha	-10.7723
zz	-10.7725
▁vannatha	-10.7732
യായിരിക്കും	-10.7734
ntire	-10.7734
nan	-10.7735
ൂടെ	-10.7735
▁Rock	-10.7737
ജീവനാ	-10.7738
റായി	-10.7744
▁itha	-10.7752
മാസ	-10.7754
പതി	-10.7757
മർ	-10.7759
▁Fahadikka	-10.7762
🤓	-10.7763
hhhh	-10.7764
yollu	-10.7769
ഇതു	-10.7772
ിട്ട	-10.7774
▁sing	-10.7782
▁ood	-10.7784
cinema	-10.7787
യുമായി	-10.779
aakum	-10.7792
ിയൻ	-10.7793
വിനോട്	-10.7794
▁ശ്രദ്ധിച്ച	-10.7796
ടു	-10.7797
nja	-10.78
ാണ	-10.7801
aar	-10.7807
ethra	-10.7807
▁തന്നിട്ട	-10.7812
മൈ	-10.7817
സൂപ്പർ	-10.7818
▁nd	-10.7818
roo	-10.7822
ിരിക്കുന്നു	-10.7822
uppam	-10.7822
▁mammo	-10.7822
▁ആഗ്രഹ	-10.7823
ദാസ്	-10.7823
മാൻ	-10.7825
bgm	-10.7827
▁മുടക്ക	-10.783
നിവിൻ	-10.7831
▁ഫോ	-10.7831
▁bangali	-10.7832
ص	-10.7834
rajuvettan	-10.7836
2019	-10.784
tovino	-10.784
ഓണം	-10.7844
▁abipra	-10.7847
gham	-10.7847
prithvi	-10.7849
ിയും	-10.785
▁സമ്മാനിച്ച	-10.7853
ഷൈൻ	-10.7854
BIG	-10.7854
WAITING	-10.7855
maranamass	-10.7855
മാറ്റം	-10.7855
ndaa	-10.7856
▁epo	-10.7856
▁കട്ട്	-10.7857
▁സ്റ്റൈ	-10.7857
▁പണ്ട	-10.7858
rick	-10.7859
▁ഇഷ്ടമുള്ള	-10.786
posit	-10.786
▁yennu	-10.7862
ottum	-10.7866
▁ആണൊ	-10.7868
rman	-10.7869
tty	-10.7872
▁thirak	-10.7872
▁tirich	-10.7877
▁Tra	-10.7878
▁illla	-10.7879
srk	-10.788
▁Vann	-10.7884
Fan	-10.7885
ിപ്പിച്ച	-10.7887
▁എല്ലാത്തി	-10.7887
▁sol	-10.7887
േഷൻ	-10.7888
▁poraa	-10.7889
▁pak	-10.7889
▁youtub	-10.7889
▁powlii	-10.7892
▁sea	-10.7892
▁ശേഷ	-10.7898
▁Vada	-10.7898
ഇനി	-10.7901
ായ	-10.7902
▁പ്രാ	-10.791
▁നിവിന്	-10.7911
▁പിള്ള	-10.7911
▁Nat	-10.7912
▁വന്നോ	-10.7915
tter	-10.7925
▁ആദ്യമായി	-10.7926
ikkka	-10.7929
ബ്ര	-10.7935
act	-10.7935
▁vacha	-10.7941
▁baa	-10.7944
rajayum	-10.7945
rrr	-10.7946
ayil	-10.7957
▁kaanumbo	-10.7959
tae	-10.7959
▁padikku	-10.7963
🤝	-10.7964
ിയിലെ	-10.7966
▁Polic	-10.7974
റ്ററിൽ	-10.7978
aji	-10.798
adichu	-10.7982
▁vella	-10.7982
ാറു	-10.7986
okka	-10.7987
▁vijayik	-10.7988
വരുന്നു	-10.7993
▁poliii	-10.7999
▁polikku	-10.7999
▁chechiii	-10.8002
eat	-10.8004
▁Su	-10.8005
▁thakar	-10.8005
▁കാണാട	-10.8006
ആം	-10.8014
▁ഉറപ്പുള്ളവർക്	-10.8025
▁ഏട്ടന്	-10.8026
യിരിക്കുന്നു	-10.8031
▁Lo	-10.8031
▁Dh	-10.8033
രിൽ	-10.8034
hhh	-10.8035
▁nine	-10.8035
▁patta	-10.8037
▁sab	-10.804
▁Dub	-10.8042
ah	-10.8043
▁റെക്കോർഡ	-10.8043
▁aye	-10.805
▁വെക്കാ	-10.8055
appan	-10.8059
mell	-10.8059
▁fr	-10.8059
ethu	-10.806
▁മാരക	-10.8063
▁yenna	-10.8063
▁സംഘ	-10.8064
▁parann	-10.8065
▁ചെറുപ്പക്കാര	-10.8067
▁തട്ട	-10.8068
cial	-10.8068
▁പ്രേമി	-10.8073
▁വർഷ	-10.8074
▁prayathil	-10.8079
ഞ്ജ	-10.808
EXT	-10.8083
▁isht	-10.8085
▁Kung	-10.8086
▁expectation	-10.8087
ngane	-10.8089
CC	-10.8089
▁joshi	-10.8092
ർത്ഥ	-10.8092
CHU	-10.8093
▁usha	-10.8094
▁കേരളത്ത	-10.8095
ച്ഛ	-10.8095
▁Giri	-10.8096
▁padich	-10.8096
▁അണ്	-10.8096
irikum	-10.8098
▁Engane	-10.8101
andu	-10.8102
▁thimir	-10.8103
ത്യസ്ത	-10.8105
▁നിരാശ	-10.8107
venjaramood	-10.8107
ശ്ശേരി	-10.8107
▁ഇമോഷ	-10.8107
▁ഓര്‍മ	-10.8107
Ė	-10.8107
Ł	-10.8107
Ś	-10.8107
ق	-10.8107
ي	-10.8107
ು	-10.8107
ചയദാ	-10.8107
തണ്ണീർമത്തൻ	-10.8107
▁ACTION	-10.8107
▁ASSOCIATION	-10.8107
▁Awesome	-10.8107
▁BLOOD	-10.8107
▁DEVIL	-10.8107
▁Expect	-10.8107
▁SUPERSTAR	-10.8107
▁glamour	-10.8107
▁kuthirappavan	-10.8107
▁problem	-10.8107
▁അങ്കമാലി	-10.8107
▁ഗാംഭീര്യ	-10.8107
▁ജയസൂര്യ	-10.8107
▁നിമിഷങ്ങൾ	-10.8107
▁നിസ്സാര	-10.8107
▁പഞ്ചാബി	-10.8107
▁മാപ്പിള	-10.8107
▁മൂക്കുത്തി	-10.8107
ò	-10.8107
▁samrakshikkum	-10.8107
▁ആശാനേ	-10.8107
▁കുതിരപ്പവൻ	-10.8107
▁തമാശ	-10.8107
▁മുംബൈ	-10.8107
▁വൃത്തികെട്ട	-10.8107
▁JOSHI	-10.8107
▁pokkiparayu	-10.8107
▁ചെറുകഥ	-10.8107
▁പരിചയ	-10.8107
ಕನ್ನಡ	-10.8107
▁Romanjification	-10.8107
▁വില്ലനിസം	-10.8107
▁അലൻസി	-10.8107
▁കാഴ്ച്ച	-10.8107
عر	-10.8107
▁ഫെസ്റ്റി	-10.8107
▁മിന്നിച്ചേക്കണേ	-10.8107
▁Pradesh	-10.8107
▁Sundar	-10.8107
▁Peranb	-10.8107
▁ഉടുക്കാ	-10.8107
▁shaapam	-10.8107
▁പ്രസന്റേഷൻ	-10.8107
Å	-10.8107
Ę	-10.8107
▁vanthavanga	-10.8107
▁Ravanan	-10.8107
▁swntham	-10.8107
▁samadhanam	-10.8107
▁chanalil	-10.8107
▁എൻട്രി	-10.8107
drishyam	-10.8107
▁group	-10.8107
▁narasimha	-10.8107
▁ground	-10.8107
▁teser	-10.8107
▁വെറുതേ	-10.8107
▁agree	-10.8107
CIA	-10.8107
▁Waste	-10.8107
▁vijayasamsakal	-10.8107
▁വെയിറ്റിംഗ്	-10.8107
▁Break	-10.8107
▁KOLA	-10.8107
▁ആളൊന്നു	-10.8107
▁Suresh	-10.8107
▁പ്രതിഭ	-10.8107
▁padikano	-10.8107
▁pazhashi	-10.8107
keedangal	-10.8108
▁കാച്ചൽ	-10.8108
▁pidikitti	-10.8108
▁thirichuvarav	-10.8108
/2019	-10.8108
▁Mammotty	-10.8108
▁പൊളിച്ചടുക്കും	-10.8108
DILEEPETTAN	-10.8108
▁driv	-10.8108
soooya	-10.8108
▁Direction	-10.8108
▁geethu	-10.8108
▁സൃഷ്ട്ടി	-10.8108
▁സന്ദേശ	-10.8108
▁പ്രൊമോ	-10.8109
▁Lalettaaa	-10.8109
▁നാമം	-10.8109
▁pwolichutto	-10.8109
▁mamukka	-10.8109
▁perfection	-10.8109
jaathi	-10.8109
▁ചെയ്തോളൂ	-10.8109
▁kudumba	-10.8109
▁സുഹൃത്തുക്കളെ	-10.8109
▁Troll	-10.8109
▁Kunjaali	-10.8109
▁ഇഷ്ട്ടായി	-10.8109
▁mammoty	-10.8109
▁പൊട്ടനാ	-10.8109
▁prithwiraj	-10.8109
▁Hype	-10.8109
▁ചെകുത്താൻ	-10.8109
▁സുകുമാരൻ	-10.8109
▁Dhaiva	-10.8109
▁ഇതിനേക്കാ	-10.8109
▁4.6	-10.8109
▁നൂറു	-10.8109
▁ഉമ്മാ	-10.8109
▁Nigam	-10.811
▁നിൽക്കണം	-10.811
▁fasil	-10.811
▁പ്രൊഡ്യൂസ	-10.811
▁0:46	-10.811
▁Donmax	-10.811
▁lvu	-10.811
▁Veera	-10.811
▁Illumina	-10.811
▁മാറ്റുന്നത്	-10.811
▁gaandla	-10.811
▁കൊള	-10.811
▁shaddi	-10.811
▁guhan	-10.811
▁മനസ്സിലായില്ല	-10.811
▁kittunilla	-10.811
▁പോകാം	-10.811
▁aalonnum	-10.8111
▁biriyani	-10.8111
▁വന്നിരിക്കുന്നു	-10.8111
▁addicted	-10.8111
▁lfa	-10.8111
▁step	-10.8111
▁Short	-10.8111
▁സംവിധായകനാണ്	-10.8111
▁ELLA	-10.8111
▁waitingggg	-10.8111
▁0:44	-10.8111
▁buster	-10.8111
▁ഇടുക	-10.8111
___	-10.8111
▁ഒന്നിനും	-10.8112
▁എന്തോന്നടെ	-10.8112
▁3.9	-10.8112
▁solluva	-10.8112
▁MadhuraRaja	-10.8112
▁lusifer	-10.8112
▁ട്രൈലെറി	-10.8112
▁വരുമോ	-10.8112
▁പറ്റൂല	-10.8112
▁ബോസേ	-10.8113
▁Prithiraj	-10.8113
▁students	-10.8113
▁vinod	-10.8113
▁bilal	-10.8113
▁കുത്തി	-10.8113
Prithiviraj	-10.8114
▁abinayam	-10.8114
▁friends	-10.8114
▁kaaanan	-10.8114
▁പ്രൊ	-10.8114
▁കൊള്ളില്ല	-10.8114
▁aashamsikkunnu	-10.8115
▁ഇല്ലേ	-10.8115
▁irunno	-10.8115
VERUM	-10.8115
▁karay	-10.8116
▁ആകാതിരുന്ന	-10.8116
▁കണ്ടിരിക്കും	-10.8116
▁reach	-10.8116
▁shah	-10.8117
▁ഇസ്തം	-10.8117
▁ഐറ്റ	-10.8117
▁പെർഫോമൻസ്	-10.8117
▁Arokke	-10.8117
▁ushaar	-10.8117
▁പ്രതീക്ഷിച്ചത്	-10.8117
▁ബോറാണ്	-10.8118
▁Hope	-10.8118
▁ആണല്ലേ	-10.8118
▁kuliru	-10.8118
▁Part	-10.8119
റർ	-10.8119
▁kodukanam	-10.8119
chum	-10.8119
▁waitinggg	-10.812
▁എപ്പോഴ	-10.812
▁ഒള്ളു	-10.812
▁Yentha	-10.812
▁ijathi	-10.812
▁round	-10.812
▁nikkunnath	-10.8121
▁അന്തസ്സ്	-10.8121
▁Erang	-10.8121
▁ആയല്ലോ	-10.8121
▁പേരിട്ട	-10.8122
zzath	-10.8122
▁മെച്ചം	-10.8122
▁വല്ലാത്ത	-10.8122
▁nalukalkk	-10.8122
▁കയർ	-10.8123
▁പൂന്ത	-10.8123
▁കാത്തിരിക്കാൻ	-10.8123
▁aayitund	-10.8123
▁മൂല്യ	-10.8124
▁പറഞ്ഞാലും	-10.8124
▁Peter	-10.8124
▁powlikku	-10.8125
▁frank	-10.8125
▁തന്റേട	-10.8125
▁പാറും	-10.8125
▁eppozhum	-10.8125
▁ചെയ്തപോലെ	-10.8125
▁sar	-10.8126
▁aarudeyum	-10.8126
▁irangum	-10.8126
മാനം	-10.8127
▁sradhich	-10.8127
▁dec	-10.8127
▁ഉണ്ടാക്കും	-10.8128
▁expectations	-10.8128
▁മോൾ	-10.8128
▁Thanne	-10.8129
▁aarkenkilum	-10.8129
▁going	-10.8129
▁?..	-10.8129
▁pottumennu	-10.8129
▁മറ്റേ	-10.8129
▁ലോകത്ത	-10.8129
▁cenima	-10.813
▁തീർക്കണം	-10.813
▁velya	-10.8131
▁കാണിക്കാൻ	-10.8131
ലൊ	-10.8131
point	-10.8132
▁kannur	-10.8133
▁aayallo	-10.8133
▁theernnada	-10.8135
adaaa	-10.8135
▁eganeya	-10.8136
▁pratheeshich	-10.8137
▁ASURA	-10.8137
▁പ്രതീക്ഷിച്ചു	-10.8137
▁ponnikka	-10.8138
▁അവതാരം	-10.8138
▁കിട്ടില്ല	-10.8139
▁cherth	-10.8139
▁ലൈഫ്	-10.8139
▁Lov	-10.814
ധീ	-10.814
▁sceen	-10.8141
▁കേറിയ	-10.8141
▁pattumo	-10.8141
▁trailr	-10.8141
▁🥴	-10.8141
▁ജിമിട്ട	-10.8142
▁TN	-10.8142
▁Shylok	-10.8143
▁ഉണ്ടായിരുന്നു	-10.8143
▁പതിവ്	-10.8143
▁കണ്ടാലും	-10.8143
▁ഭാഷയാണ്	-10.8143
▁കോടതി	-10.8143
▁ആവേശം	-10.8143
▁hangover	-10.8143
▁lalappan	-10.8144
▁edake	-10.8144
▁മീശ	-10.8144
▁അന്യായ	-10.8144
▁chavum	-10.8144
▁releasing	-10.8144
gram	-10.8144
▁lakh	-10.8145
▁:*	-10.8145
▁Baap	-10.8145
▁ikaaa	-10.8146
▁Killer	-10.8146
▁manjuchechi	-10.8146
REA	-10.8147
▁myr	-10.8147
▁കണ്ടറിയാം	-10.8147
▁ILLA	-10.8148
▁ENTE	-10.8148
▁ആണേൽ	-10.8149
▁Powlichu	-10.815
▁dq	-10.815
▁മിനിറ്റ	-10.8151
▁ബട്ടൻ	-10.8151
nuuu	-10.8152
▁urapichu	-10.8152
▁മാരകം	-10.8152
▁aanel	-10.8152
▁Pala	-10.8152
▁nattu	-10.8152
▁ആഗ്രഹം	-10.8153
▁അഭിനയിക്കുന്ന	-10.8153
▁Kalipp	-10.8153
▁കാണാനും	-10.8154
▁ടൈറ്റിൽ	-10.8154
▁guarantee	-10.8154
േർ	-10.8155
▁cher	-10.8155
▁energy	-10.8157
▁sinimayil	-10.8157
Producer	-10.8157
▁Mamuka	-10.8157
irunegil	-10.8158
▁Mamukka	-10.8158
▁Max	-10.8158
▁akunu	-10.8158
▁മനസ്സിലായവർ	-10.8159
▁Tr	-10.8159
▁>	-10.8161
▁kondupokum	-10.8161
▁cheyunavar	-10.8162
▁അല്ലല്ലോ	-10.8163
▁ഞങ്ങളെ	-10.8163
egativ	-10.8164
▁may	-10.8166
▁dear	-10.8166
quel	-10.8168
April	-10.8168
▁തയ്യാറാ	-10.8169
ന്ത്	-10.8169
▁avunnu	-10.8172
▁base	-10.8173
▁opp	-10.8173
▁muvi	-10.8174
▁means	-10.8174
▁kudut	-10.8175
▁arund	-10.8177
▁avate	-10.8177
വന്നവർ	-10.8179
▁web	-10.818
▁waitin	-10.818
▁ശബ്ദം	-10.818
inekkal	-10.8181
▁gener	-10.8181
▁Muthe	-10.8181
TON	-10.8182
▁Sta	-10.8183
▁ട്രാവ	-10.8183
hala	-10.8184
▁CR	-10.8186
▁അക്ഷര	-10.8186
▁hii	-10.8187
▁ക്രീനിൽ	-10.8189
▁thagar	-10.8189
യൊരു	-10.8189
▁5-	-10.8191
▁teater	-10.8191
diya	-10.8192
nokkiyit	-10.8192
▁ithaanu	-10.8192
▁adikada	-10.8193
▁fansinde	-10.8194
▁expect	-10.8194
▁Let	-10.8194
▁അങ്ങന	-10.8195
▁നശിപ്പിച്ച	-10.8197
▁pennu	-10.8197
▁Njngal	-10.8198
▁స	-10.8198
▁🤯	-10.8198
▁sath	-10.8199
▁BUT	-10.82
▁thonniye	-10.82
▁COMING	-10.8201
▁48	-10.8201
▁chemban	-10.8202
▁വന്നാൽ	-10.8202
▁MOLLYWOOD	-10.8203
▁avde	-10.8204
▁machaan	-10.8204
▁thnne	-10.8205
▁ayathu	-10.8205
▁adichodik	-10.8206
nikanth	-10.8207
▁കൂടും	-10.8207
▁meesha	-10.8207
▁arinju	-10.8208
▁evd	-10.821
▁Aaaa	-10.821
nikkada	-10.821
enna	-10.8211
▁diss	-10.8211
▁ആവില്ല	-10.8211
▁ചേഞ്ച	-10.8212
kuka	-10.8216
▁മലയാളത്തിലും	-10.8217
ARUM	-10.8222
ികച്ച	-10.8223
romising	-10.8224
ാല	-10.8226
▁അമർത്ത	-10.8226
▁തരും	-10.8226
ari	-10.8226
▁Puli	-10.8226
▁പെണ്ണും	-10.8229
▁parayaanilla	-10.823
▁മാതൃക	-10.823
▁വന്നേ	-10.8231
▁adichaa	-10.8234
ഭാവം	-10.8234
ichiri	-10.8235
▁cuts	-10.8237
ama	-10.8237
▁pengal	-10.824
tng	-10.8242
athila	-10.8242
▁madhi	-10.8242
anello	-10.8244
oraksha	-10.8245
▁sabu	-10.8245
tin	-10.8246
▁cheyyanam	-10.8247
കഞ്ഞി	-10.8247
ോർട്ട്	-10.8251
▁🤝	-10.8251
▁ഡബ്ബി	-10.8253
▁എന്താവുമ	-10.8254
▁🤫	-10.8255
▁IP	-10.8257
ecord	-10.826
▁njnga	-10.8261
jjadhi	-10.8263
ാമത്ത	-10.8265
▁nj	-10.8266
dharshan	-10.8269
nal	-10.8273
ating	-10.8274
▁പുലി	-10.8275
▁polakka	-10.8275
▁penkutti	-10.8276
▁pen	-10.8276
▁പൊന്നിക്ക	-10.8277
ID	-10.8278
ലായി	-10.828
▁aanenkilum	-10.828
▁ബ്ര	-10.8281
surya	-10.8281
▁nenjath	-10.8283
▁കുല	-10.8283
▁LAD	-10.8285
▁aanelum	-10.8287
appaan	-10.8289
▁ക്ലൈമാക്സ	-10.8289
ണി	-10.8293
▁ആഗ്രഹിച്ച	-10.8294
▁akumo	-10.8295
യായ	-10.8296
▁avante	-10.8296
▁ചാന	-10.8298
ിപ്പിച്ചു	-10.8299
▁aaki	-10.83
▁ooola	-10.8302
▁karuthiyath	-10.8303
തൊക്കെ	-10.8304
▁ayya	-10.8307
▁ജയ്	-10.8307
▁chathu	-10.8307
▁orumathiri	-10.8309
▁ചോ	-10.8309
▁ലൈക	-10.8309
kkk	-10.8315
▁urappulla	-10.8316
ariyaam	-10.8316
▁ഇരുട്ട	-10.8318
▁Movies	-10.8319
irat	-10.8319
▁Pauly	-10.832
▁ക്ഷണി	-10.832
▁aavand	-10.8321
▁nallathu	-10.8321
▁Shy	-10.8322
തായ	-10.8322
▁thamil	-10.8324
▁Enthokke	-10.8326
▁nattil	-10.8327
▁kayinj	-10.8328
▁കയറ	-10.8329
ashamsakal	-10.833
▁kudu	-10.833
▁killi	-10.8331
▁ബിൽ	-10.8333
ഖാ	-10.8333
▁Kandittu	-10.8338
▁അടുപ്പ	-10.834
▁povaan	-10.8341
▁Lalett	-10.8344
yaaa	-10.8347
▁naa	-10.8347
▁നേരിട്ട	-10.8349
▁erangan	-10.8351
▁Pratheeksha	-10.8354
▁Histor	-10.8355
rr	-10.8358
▁oolakal	-10.8359
▁നടക്കുന്നവ	-10.836
▁പിള്ളേരുടെ	-10.836
▁വിളിക്ക	-10.8362
മു	-10.8363
▁Paz	-10.8367
▁ettaaa	-10.8374
▁yes	-10.8376
AR	-10.8376
വമ്മാര	-10.8377
ayunna	-10.8378
▁Otta	-10.838
duper	-10.8383
daaaa	-10.8386
YUM	-10.8386
▁അധ	-10.8392
▁eragi	-10.8392
▁vijayamakat	-10.8393
▁AAA	-10.8394
ലിം	-10.8395
ല്	-10.8399
▁anenkil	-10.84
unjali	-10.8402
▁Prithwiraj	-10.8403
▁thaan	-10.8404
▁who	-10.8404
▁വന്നാ	-10.8405
▁തി	-10.8409
▁ഇഷ്ട്ട	-10.8409
▁അനിയന്മാർ	-10.8412
▁manasuma	-10.8413
▁Ett	-10.8414
▁Ivan	-10.8416
itulla	-10.8416
orge	-10.842
▁Potta	-10.8421
▁endh	-10.8423
▁GOP	-10.8423
▁ശേ	-10.8425
▁ude	-10.8428
avilla	-10.843
െടുക്കാൻ	-10.8433
▁kaanikkan	-10.8436
trol	-10.8436
▁Cuts	-10.8437
▁illya	-10.844
▁DAY	-10.8441
▁aana	-10.8441
▁ഭാവം	-10.8441
ിക്	-10.8442
▁Shammi	-10.8442
▁ആവുന്ന	-10.8442
▁Aada	-10.8442
ധിപ്പി	-10.8443
▁ജോസ	-10.8444
chan	-10.8445
▁moo	-10.8446
TRA	-10.8446
▁acc	-10.8446
▁വർ	-10.8446
▁illalo	-10.8449
▁ഉയിര	-10.845
▁manassil	-10.8451
urali	-10.8458
കടലി	-10.8458
wdi	-10.8461
▁വെട്ടി	-10.8465
▁പ്രാർത്ഥിച്ചു	-10.8465
yamulla	-10.8466
?🤔	-10.8468
▁kanikkunnath	-10.8468
▁nokiy	-10.8471
▁sens	-10.8472
▁01:0	-10.8473
▁mansilayi	-10.8475
▁pear	-10.8476
▁thallal	-10.8481
▁Padathin	-10.8485
dan	-10.8485
mb	-10.8486
▁വട്ട	-10.8491
avam	-10.8491
ഡിയോ	-10.8491
ക്കട്ടെ	-10.8492
▁ariyo	-10.8492
▁Ant	-10.8499
▁mamo	-10.8499
▁aranen	-10.85
pam	-10.8502
▁Waitingg	-10.8502
▁thonnunne	-10.8503
▁pwolii	-10.8505
▁clic	-10.8507
▁നശിപ്പിക്ക	-10.851
oodi	-10.851
96	-10.8512
▁Aja	-10.8515
▁വൈ	-10.8517
▁mess	-10.8519
▁sahik	-10.8525
▁ഒരൊന്ന	-10.8526
▁chyum	-10.8526
noru	-10.853
▁indu	-10.8534
dhi	-10.8536
ാവ്	-10.8538
▁എഴുതിയത	-10.8539
തെല്ലാം	-10.8541
ലം	-10.8541
▁പാട്ടു	-10.8542
jo	-10.8546
▁വിദ്യാ	-10.8549
▁rasi	-10.8554
▁ചെയുന്ന	-10.8554
PORT	-10.8556
▁നാട്ടിലെ	-10.8556
▁nail	-10.8556
aayirikkum	-10.8557
▁adaaa	-10.8559
▁ഗു	-10.8561
▁teaminu	-10.8564
▁Aaah	-10.8567
LA	-10.8569
▁penn	-10.8569
തായാലും	-10.8574
▁aava	-10.8574
▁തട്ടി	-10.8576
▁ശ്രദ്ധിക്കുന്ന	-10.8576
▁rosha	-10.8576
▁gr	-10.8585
▁purath	-10.8587
▁fananu	-10.8588
▁muthaan	-10.8596
▁കേറിയതാണ	-10.8598
▁eatta	-10.8599
▁കഴിഞ്ഞപ്പോ	-10.8601
▁laletten	-10.8609
▁പറയിപ്പിക്ക	-10.8609
▁മച്ചാന്മാ	-10.8611
▁loo	-10.862
eeq	-10.8638
▁kasari	-10.8639
▁സ്ലാങ്ങ	-10.8639
▁sco	-10.8643
NB	-10.8646
ിക്കെട്ട	-10.8646
▁perfo	-10.8646
▁Namichu	-10.8649
▁Kar	-10.8652
nneth	-10.8652
▁veruka	-10.8652
▁Paranj	-10.8652
▁കഥാപാത്രമാണ	-10.8653
ngine	-10.8653
▁adichavark	-10.8654
▁nirthi	-10.8656
▁edukkunn	-10.8656
LLY	-10.8656
tuck	-10.8657
kante	-10.8658
kalkku	-10.8659
▁പങ്ക	-10.866
▁തീരുമാന	-10.8662
adaaaa	-10.8664
▁ടീമിന	-10.8668
?????	-10.8669
horr	-10.8669
്ക്ക്	-10.8671
DE	-10.8674
▁അതാണ	-10.8674
mbol	-10.8675
▁കിട്ടിയില്ല	-10.8677
▁mammukkay	-10.8677
ോടെ	-10.8681
▁chilappo	-10.8686
▁kiduve	-10.8686
▁arinja	-10.8688
▁theru	-10.8694
▁Kannad	-10.8695
dee	-10.8695
▁Maraka	-10.8696
കാ	-10.8699
▁Adikk	-10.8699
▁pattath	-10.8703
▁Kurachu	-10.8704
▁വിത്ത	-10.8707
▁kidil	-10.8708
basha	-10.8708
▁purak	-10.8711
▁LE	-10.8711
66	-10.8712
▁ജനിച്ച	-10.8713
▁kill	-10.8716
▁max	-10.8721
▁ആവേശ	-10.8724
▁paranjitt	-10.8726
▁nokka	-10.8736
▁illaaa	-10.8739
▁സാധിക്കു	-10.8742
▁Ba	-10.8744
ise	-10.8744
▁thannu	-10.8747
▁vangi	-10.8748
▁nml	-10.8753
▁edukan	-10.8756
ഉണ്ടാക്കിയെടുത്ത	-10.8756
ayrnnu	-10.8757
▁ndo	-10.8762
▁sidil	-10.8763
ON	-10.8763
▁nilku	-10.8764
നോട്	-10.8765
ambhavam	-10.8766
▁munpil	-10.8767
▁eppa	-10.8772
▁month	-10.8773
▁karuthi	-10.8775
▁ഇല്ലെന്ന	-10.8775
▁mikav	-10.8777
കൊള്ള	-10.8782
▁കൂട്ടുകാരെ	-10.8784
▁ഹെ	-10.8787
ശി	-10.8792
acter	-10.8793
ATES	-10.8795
േയുള്ളൂ	-10.8796
്പം	-10.8799
ീം	-10.8801
angalore	-10.8803
aarum	-10.8805
ോടൊപ്പം	-10.8812
▁kurupotti	-10.8817
...!!	-10.8817
attil	-10.8817
▁konda	-10.8819
agrahikunnavar	-10.8831
kanu	-10.8831
▁yar	-10.8832
▁eraku	-10.8833
ichal	-10.8837
▁polii	-10.8839
▁vanu	-10.8843
pichu	-10.8843
സന്ധ	-10.885
▁പറ്റിക്ക	-10.885
▁തെറ്റായ	-10.8851
▁kodu	-10.8853
ilouge	-10.8857
▁ജോജുവേട്ടന്	-10.8859
ർട്ട്	-10.8862
▁Wh	-10.8863
orry	-10.8865
▁മഞ്ജുവിന്	-10.887
▁Licen	-10.8871
▁4.	-10.8876
mam	-10.8883
kumari	-10.8883
yavan	-10.8884
▁Nay	-10.8885
▁nyl	-10.8887
▁നിക്കുന്ന	-10.8892
aanolla	-10.8894
▁tv	-10.8895
▁കുടി	-10.8895
▁സിനിമകളില	-10.8904
ttymani	-10.8906
uka	-10.8906
▁varunavar	-10.8907
▁അഡാ	-10.8909
▁അവൾ	-10.8913
ക്കാം	-10.8913
▁surajetta	-10.8914
▁Am	-10.8916
rappicho	-10.8921
▁karya	-10.8923
nthoru	-10.8924
▁songs	-10.8925
▁kazhinjitt	-10.8926
▁reals	-10.893
ttt	-10.893
▁17	-10.8931
▁ഇഷ്ടമായി	-10.8938
▁🤭🤭🤭	-10.8942
katee	-10.8945
anuu	-10.8946
▁Namm	-10.8948
akuvo	-10.8949
▁പാതിരക്ക	-10.8951
ela	-10.8951
▁aam	-10.8952
▁penna	-10.8955
ായിട്ട്	-10.8962
itund	-10.8966
▁rajuettaaa	-10.8969
identi	-10.8969
▁col	-10.897
imit	-10.8974
കാര	-10.8974
▁swand	-10.8977
roud	-10.8982
▁തീർന്ന	-10.8984
▁LA	-10.8987
▁ഓഫീസ	-10.8988
▁ശബ്ദത്തി	-10.8988
▁ആവാത	-10.8988
▁Thar	-10.8992
upon	-10.8993
▁bala	-10.8995
uva	-10.8998
lavar	-10.8999
▁Tim	-10.9
▁ഇറങ്ങ	-10.9001
athan	-10.9004
▁ishtamay	-10.9009
▁Ponno	-10.901
▁Ithe	-10.9013
പ്പം	-10.9014
light	-10.9014
▁cheyyun	-10.9015
ക്തി	-10.9017
▁പേടിക്ക	-10.9018
▁nilkunnath	-10.9019
ttaaa	-10.902
ിരിക്കുവാണല്ലോ	-10.902
▁ഇരി	-10.9021
35	-10.9021
▁എടുക്കുന്ന	-10.9022
▁arokeya	-10.9022
🥰🥰🥰🥰	-10.9026
▁sup	-10.9028
▁ശരിക്ക	-10.9031
lack	-10.9033
▁വിജയിപ്പിക്ക	-10.9034
▁mammookkak	-10.9035
മതി	-10.9038
▁jayikum	-10.9041
▁എന്തൊക്കെയാണ	-10.9044
▁kiduu	-10.9045
▁201	-10.9052
▁sheen	-10.9053
ntham	-10.9054
▁വരുന്നതിന	-10.9055
▁adichavarkk	-10.9055
▁chilar	-10.9059
ഹി	-10.9061
viral	-10.9064
▁Comad	-10.9068
ക്കൊപ്പം	-10.9071
▁cheri	-10.9072
ish	-10.9082
fully	-10.9085
▁pri	-10.9088
▁dh	-10.9088
▁ഒള്ള	-10.9092
▁nashtam	-10.9095
▁lookka	-10.9097
ത്ര	-10.9103
▁Kett	-10.9108
thara	-10.9109
uvare	-10.911
▁എല്ലാരുട	-10.9112
▁ഡയലോഗ	-10.9112
▁ഇൻ	-10.9113
▁At	-10.9114
▁പെട്ട	-10.9118
aatha	-10.9118
▁kolaam	-10.9123
amenkil	-10.9128
keyo	-10.9129
ജീവിതത്ത	-10.9129
▁പെൺ	-10.9135
▁എന്തിന	-10.9136
24	-10.9136
amo	-10.9138
▁ബെ	-10.9138
▁songil	-10.9139
▁kunj	-10.9139
▁Plzz	-10.9141
▁DI	-10.9151
കൊള്ളുന്ന	-10.9152
▁കേട്ടാ	-10.9152
▁വിജയിക്ക	-10.9155
▁പറങ്കികള	-10.9165
▁ADICH	-10.9173
rilla	-10.9176
▁കൊച്ച	-10.9179
iyaanu	-10.918
▁kayariya	-10.9184
petta	-10.9184
▁numma	-10.9186
▁rak	-10.9187
arkar	-10.9189
▁Ithaan	-10.919
▁പറയേണ്ട	-10.9191
kacha	-10.9193
▁eghan	-10.9195
▁റോ	-10.9195
േട്ടാ	-10.9195
▁edhu	-10.9199
▁ഫാൻസിനു	-10.9199
▁Ntammo	-10.92
▁njanum	-10.9202
▁ട്രെൻഡ	-10.9206
athirikkaan	-10.9209
▁പോളക്ക	-10.9209
▁mammookkay	-10.921
▁എട്ടന	-10.9213
ture	-10.9213
▁കരയ	-10.9213
▁നിൽക്ക	-10.9219
athilum	-10.922
▁Thalaivaaa	-10.9222
anmare	-10.9223
hil	-10.9234
ല്യം	-10.9239
▁antha	-10.9239
▁iyal	-10.9243
മ്പോൾ	-10.9244
oyi	-10.9247
▁അറു	-10.9249
ിറ്റി	-10.9249
frm	-10.925
ett	-10.925
▁ellavid	-10.9253
▁pack	-10.9254
▁semm	-10.9258
▁mash	-10.926
▁chekkan	-10.926
unnil	-10.9266
jay	-10.9266
▁വരി	-10.9266
▁ഹരീന്ദ്രന	-10.927
▁കാണാനുള്ള	-10.9274
▁teams	-10.9281
EP	-10.9281
▁sid	-10.9283
▁അറിയുന്ന	-10.9289
▁nama	-10.9292
ilo	-10.9299
▁guyz	-10.9301
▁പറയുന്നു	-10.9301
▁bho	-10.9303
▁urap	-10.9303
▁kalli	-10.9303
ോണം	-10.9308
▁trill	-10.9311
ssssssssssssss	-10.9316
ool	-10.9317
▁udd	-10.9319
▁0:0	-10.9321
iler	-10.9322
▁ithi	-10.9323
▁ട്രീസ	-10.9324
▁എവിട	-10.9325
illengil	-10.9328
ans	-10.9331
aavuo	-10.9331
ner	-10.9331
▁pattiy	-10.9335
ole	-10.9336
▁Eattan	-10.9339
▁padath	-10.9341
ammal	-10.9343
nior	-10.9343
▁ഒന്നാ	-10.9344
▁kurava	-10.935
▁mona	-10.9359
arich	-10.9363
▁പോലെയാ	-10.9365
▁moonjiya	-10.937
tanta	-10.9373
▁vendaa	-10.9374
▁abhin	-10.938
valle	-10.9381
▁padav	-10.9384
▁vaye	-10.9388
▁Naal	-10.9388
▁പോവാ	-10.9389
▁allee	-10.9396
്മ	-10.9397
▁paatu	-10.94
ൽക്കിടിലം	-10.94
▁ninna	-10.9409
▁Maas	-10.941
▁pres	-10.9416
▁manasilak	-10.9427
▁തിയ	-10.9427
▁ശെരിയ	-10.943
നുള്ള	-10.9432
▁പ്രദ	-10.9432
▁poyavar	-10.9433
▁ഡയലോഗിന്	-10.9433
mavane	-10.9437
▁Aha	-10.9438
VING	-10.9439
▁Vis	-10.9445
▁sheri	-10.9446
▁ividea	-10.9449
etc	-10.9451
unda	-10.9452
50	-10.9455
പേര്	-10.9458
.?	-10.9459
▁koottunn	-10.9462
▁നന്നായിട്ട	-10.9463
▁മൊ	-10.9465
▁മുക്കാ	-10.9466
unnund	-10.9466
karanam	-10.9467
▁panni	-10.9469
▁ഉള്ളി	-10.947
സിനിമ	-10.9471
ut	-10.9474
▁Iwa	-10.9477
▁ayilla	-10.9479
കെ	-10.9479
▁koduthu	-10.948
ടൻ	-10.9482
▁ചേരുന്ന	-10.9483
ീട്	-10.9485
▁ERA	-10.9485
▁റിലീസ	-10.9485
രിക്കും	-10.9485
▁തലവ	-10.9487
▁ethan	-10.9488
mayam	-10.9493
▁ningalku	-10.9494
▁ചിത്രത്തി	-10.9495
▁Mara	-10.9496
eri	-10.9502
🤩🤩🤩🤩🤩	-10.9503
IN	-10.9504
▁ആന്റി	-10.9505
▁ചക്ക	-10.9517
▁rat	-10.9518
▁ഉണ്ടാക്കിയ	-10.9518
▁Ethe	-10.952
chal	-10.9524
▁athor	-10.9526
▁varuna	-10.9527
der	-10.9528
ab	-10.953
▁Endo	-10.9531
ളേ	-10.9532
▁Onathin	-10.9533
റാം	-10.9535
▁ange	-10.9536
▁irakki	-10.9537
▁namuk	-10.9537
▁kalanj	-10.9538
▁സെല	-10.9545
ర	-10.9547
ame	-10.9548
okay	-10.9551
hanam	-10.9552
AAA	-10.9553
▁sh	-10.9554
െൽ	-10.9554
▁മാമാങ്കത്ത	-10.9555
േക്ക്	-10.9556
▁lola	-10.9557
▁padikk	-10.9559
▁tea	-10.9563
▁lokk	-10.9566
▁kara	-10.9567
ease	-10.9567
▁vaga	-10.9569
▁ആയിരി	-10.9573
▁SEE	-10.9576
▁Swa	-10.9579
▁allenkil	-10.958
eeeeeeee	-10.9581
nmar	-10.9583
ർച്ച	-10.9585
▁Pwli	-10.9587
TS	-10.9588
▁kayy	-10.9589
▁Go	-10.9591
marum	-10.9591
▁Orupad	-10.9593
▁laleetta	-10.9594
▁marikk	-10.9595
Vi	-10.96
MI	-10.9602
▁ചിത്രങ്ങള	-10.9604
▁ipadi	-10.9604
▁kannd	-10.9606
arnnu	-10.9608
▁നിർമിക്കു	-10.9615
▁bag	-10.9618
kalku	-10.9618
▁HA	-10.9621
▁Adik	-10.9628
ച്ചത്	-10.9629
▁Ithra	-10.9634
▁സംവിധായക	-10.9636
thal	-10.9636
▁sams	-10.9639
odi	-10.9639
▁thani	-10.964
kkeda	-10.9641
▁say	-10.9642
▁adhika	-10.9643
pozhe	-10.9652
▁Job	-10.9653
▁GIR	-10.9657
we	-10.9663
▁വില്ല	-10.9665
▁malaya	-10.9668
kay	-10.9672
ുപ്പ്	-10.9672
▁paraja	-10.9676
▁ഗാ	-10.9685
▁pottich	-10.9686
ഗണ	-10.9689
▁eng	-10.9689
▁pag	-10.97
▁pan	-10.9703
▁ayye	-10.9704
വളാ	-10.9707
ലർ	-10.9707
▁kada	-10.9707
adhe	-10.9707
▁ett	-10.971
ira	-10.9712
oj	-10.9712
▁kidann	-10.9712
aranu	-10.9719
▁avide	-10.9722
ിരുന്നെങ്കിൽ	-10.9723
▁Macha	-10.9725
▁kanikun	-10.9728
▁nedum	-10.973
േക്കാ	-10.9732
yada	-10.9733
sa	-10.9734
▁Visi	-10.9736
▁irangiyal	-10.9745
കാര്യ	-10.9747
▁kol	-10.9748
▁മലര	-10.9748
ന്റിന	-10.9751
▁paranjath	-10.9752
pedunn	-10.9753
ക്കിൽ	-10.9756
യാണോ	-10.9757
▁വരുത്ത	-10.976
▁kalay	-10.9767
▁...............	-10.9772
▁pottii	-10.9773
▁🤣🤣🤣🤣🤣	-10.9774
▁kath	-10.978
▁നസ്രാണി	-10.978
▁allaaa	-10.9782
▁mamookaa	-10.9786
▁indak	-10.9787
▁Kattt	-10.9791
ction	-10.9796
aayalum	-10.9801
▁കൂട്ടുകാര	-10.9803
▁mr	-10.9803
▁prathik	-10.9806
▁ona	-10.9806
ിരിച്ചു	-10.9807
▁Veend	-10.981
athilla	-10.9811
▁🤭🤭	-10.9815
ട്ടം	-10.9819
ങ്ങളെ	-10.9823
▁ഇട്ടിച്ചന്റ	-10.9827
ijo	-10.9828
ുന്നതാണ്	-10.9829
▁സിനിമയ്ക്കു	-10.9843
▁ഷെ	-10.985
▁Bash	-10.9851
▁ലൈക്കി	-10.9856
▁ഭാഷയ	-10.9857
മുണ്ട്	-10.9857
▁പടമല്ല	-10.9868
▁makkaleee	-10.987
▁നടന്റെ	-10.9874
▁hate	-10.9878
ndavum	-10.9879
▁ഏട്ട	-10.988
▁adichavanmar	-10.9882
ാത്തത്	-10.9887
▁kozh	-10.9891
▁Kurach	-10.9891
▁ലാലു	-10.9894
▁കര	-10.9895
▁വരവ	-10.9901
▁തരുന്ന	-10.9902
▁kollaa	-10.9905
vitha	-10.9907
12	-10.9911
galil	-10.9914
rkum	-10.9918
▁Tri	-10.9919
other	-10.9921
▁enga	-10.9922
▁Pad	-10.9926
nangal	-10.9928
▁മനസിലായ	-10.9928
aruth	-10.9929
ാളി	-10.9934
▁thonniyo	-10.9934
IR	-10.9936
▁70	-10.9936
kkare	-10.9936
▁ഷൈ	-10.9937
ithoru	-10.9942
▁akka	-10.9947
eca	-10.9952
▁സാധ്യത	-10.9954
▁എന്തുകൊണ്ട	-10.9958
mala	-10.9959
ാത	-10.996
രിക്ക	-10.9967
▁Idik	-10.9968
ym	-10.9969
she	-10.9971
▁kasar	-10.9972
▁പറഞ്ഞാ	-10.9973
yokke	-10.9985
▁പ്രീ	-10.9985
▁Edh	-10.9985
▁Njangal	-10.9986
▁Mas	-10.9987
▁Lall	-10.9998
എ	-11.0001
othiri	-11.0003
▁aayirikkumenn	-11.0004
ൈ	-11.0008
dho	-11.0008
yekk	-11.0009
▁തലക്ക	-11.0009
EEP	-11.0009
▁aayonn	-11.0015
▁Ettaaa	-11.0021
kunavar	-11.003
കർ	-11.0031
▁scn	-11.0032
ലാണ്	-11.0039
▁Amb	-11.0042
ുന്നുണ്ട്	-11.0046
നല്ല	-11.0055
koottam	-11.0058
▁ago	-11.0058
▁kalich	-11.006
▁വിനീത	-11.0064
▁Polich	-11.0064
▁uyarth	-11.0066
mal	-11.0067
ime	-11.0067
laletta	-11.0068
▁akkum	-11.0069
▁Poo	-11.0069
▁bh	-11.0071
▁പ്രതീക്ഷിക്കു	-11.0073
▁Annan	-11.0076
▁vannad	-11.008
oh	-11.0081
ന്നില്ല	-11.0087
▁ettane	-11.0089
atan	-11.0089
aki	-11.0096
line	-11.0098
lloo	-11.0106
▁Indo	-11.011
നായ	-11.011
▁dele	-11.0111
kunu	-11.0118
▁sat	-11.012
▁വർത്ത	-11.0121
▁cheythe	-11.0121
eshan	-11.0124
irunnath	-11.0128
▁pinn	-11.013
▁vanath	-11.0133
▁jay	-11.0135
ിനുള്ള	-11.0136
▁samb	-11.0137
lus	-11.0139
▁bap	-11.0141
▁Av	-11.0143
▁vannappo	-11.0147
▁chela	-11.0148
പട	-11.0151
jari	-11.0153
▁kit	-11.0154
▁abin	-11.0155
▁bobb	-11.0156
▁Mam	-11.0157
▁വെച്ചിട്ട	-11.0158
▁joshiy	-11.0158
▁GOO	-11.0159
▁dha	-11.016
ഹാ	-11.0161
ികളേ	-11.0162
▁ഇട്ടിച്ചായന	-11.0162
aaaaaaaaaaa	-11.0164
▁undalloo	-11.0173
40	-11.0174
▁Achayan	-11.0177
കി	-11.0179
▁Class	-11.018
▁Mamanga	-11.0184
▁thetti	-11.019
▁ഹിറ്റാക	-11.019
45	-11.0192
▁മൂവ	-11.0193
▁mal	-11.0197
vanathu	-11.0198
LO	-11.0198
▁laleeta	-11.0199
▁കൊണ്ടുപോക	-11.0199
Raj	-11.0202
▁ആരാധകനാ	-11.0204
sanam	-11.0207
ുന്നില്ലല്ലോ	-11.0213
േയും	-11.0213
film	-11.0213
▁ജോസിനെ	-11.022
▁Kuja	-11.022
▁thakarkk	-11.0225
▁കലാ	-11.0226
നേം	-11.0227
▁San	-11.0229
▁thottu	-11.0231
min	-11.0237
സ്ക്ര	-11.0238
IL	-11.0242
gade	-11.0249
▁chodicha	-11.0254
ടിക്കാൻ	-11.0259
shy	-11.0259
▁കൊന്ന	-11.026
kkalle	-11.027
▁malayalikal	-11.0272
▁Sho	-11.0272
Katta	-11.0273
▁angan	-11.0274
ollavar	-11.0274
ിക്കണം	-11.0278
nalum	-11.0278
▁kat	-11.028
നിക്	-11.0281
avarkk	-11.0282
ച	-11.0285
nves	-11.0287
▁Dis	-11.0289
ഞ്ചു	-11.029
▁noki	-11.0291
വെച്ച	-11.0292
ലൈക്ക്	-11.0295
▁cherun	-11.03
കാണാൻ	-11.0302
wait	-11.0303
🥺	-11.0304
റിഞ്ഞ	-11.031
ിനയ	-11.0311
കിയ	-11.0312
support	-11.0314
പിള്ളേരുടെ	-11.0315
🥳	-11.0315
nem	-11.0317
ഏട്ടന്റെ	-11.0317
▁thannee	-11.0318
))	-11.032
▁Ava	-11.032
▁Christ	-11.032
thikum	-11.0324
▁mudi	-11.0324
പക്ഷെ	-11.0324
▁വീഴ	-11.0324
വിശേഷ	-11.0325
Rajini	-11.0327
പൊറിഞ്ചു	-11.0328
ുന്നുണ്ടല്ലോ	-11.0328
ജോജു	-11.0328
മമ്മുക്ക	-11.0329
▁nyz	-11.0332
మ	-11.0332
gopi	-11.0333
▁Oooo	-11.0336
MAMANGAM	-11.0337
ശോ	-11.0337
MAN	-11.0338
ബിഗ്	-11.0338
Vere	-11.0339
MARANA	-11.0339
OUT	-11.0339
▁theerum	-11.0341
▁thakark	-11.0341
ದ	-11.0342
heavy	-11.0346
എന്തായാലും	-11.0346
ഞ്ച	-11.0346
Mammootty	-11.0347
Trending	-11.0348
Mech	-11.0348
@	-11.0348
back	-11.0349
Unni	-11.0349
▁san	-11.035
ാക്കാൻ	-11.035
MAMMOOTTY	-11.0351
ivde	-11.0351
Megastar	-11.0351
padu	-11.0351
്ടം	-11.0351
Kola	-11.0352
▁urutta	-11.0352
നിങ്ങൾ	-11.0353
ഇട്ടിച്ചൻ	-11.0353
ഗീതു	-11.0356
|	-11.0357
thanu	-11.0357
aayene	-11.0358
▁ടിക്	-11.0358
▁പ്രേക്ഷകര	-11.0361
god	-11.0362
wide	-11.0363
chumma	-11.0363
ബോറ	-11.0363
▁ene	-11.0367
ufff	-11.0369
▁aarkk	-11.037
▁മറി	-11.0374
▁Styl	-11.0376
▁കണ്ടതാ	-11.0376
▁ollavar	-11.0377
dilum	-11.0384
▁mann	-11.0384
Ore	-11.0386
▁ithum	-11.0389
ോദന	-11.0391
▁theerath	-11.0396
thram	-11.0402
▁kanunu	-11.0404
lelum	-11.0405
മി	-11.0408
▁തോന്നു	-11.0411
▁Lale	-11.0412
▁unga	-11.0412
ndit	-11.0412
▁1.4	-11.0413
▁Eeee	-11.0413
richu	-11.0414
:-	-11.0414
▁aayirun	-11.0416
▁ജോജുവ	-11.0416
ലു	-11.0417
പിടിച്ച	-11.042
▁Madhurarajakku	-11.0421
avr	-11.0439
പാട്	-11.0444
▁raks	-11.0451
▁cl	-11.0453
▁നോക്കാ	-11.0456
irector	-11.0456
ayittu	-11.0456
▁ഇഷ്ട്ടപെട്ട	-11.0457
കാണാ	-11.046
▁ayt	-11.0467
aaan	-11.047
▁മരണമാസ	-11.0471
കോഴി	-11.0471
▁സെ	-11.0471
▁thoniya	-11.0472
▁vish	-11.0472
കാര്യം	-11.0474
ct	-11.0476
▁പ്രതീക്ഷയു	-11.0476
abikka	-11.0478
▁വിര	-11.0479
bg	-11.0483
▁ഉറപ്പിച്ച	-11.0484
mbili	-11.0484
▁kothi	-11.0485
▁thudangiy	-11.0488
▁രൂപത്തി	-11.0491
dangu	-11.0491
▁Lif	-11.0491
▁adichekk	-11.0492
▁thudangiya	-11.0494
▁undayi	-11.0494
▁vekthi	-11.0497
▁Dislik	-11.05
▁chank	-11.0501
▁ud	-11.0503
▁Epo	-11.0508
▁ഒരിക്ക	-11.0509
▁rel	-11.0511
▁വയസ്സ	-11.0511
▁erikku	-11.0512
▁യാ	-11.0514
▁Ever	-11.0515
▁sheriya	-11.0515
ike	-11.0518
▁kochu	-11.0522
സംഗ	-11.0523
▁kondupo	-11.0524
▁thalaiva	-11.0527
▁ellark	-11.0527
▁muk	-11.053
▁preshakar	-11.0531
പെണ്ണ	-11.0537
▁niranja	-11.0538
▁ലൈസൻസ	-11.0539
▁Raksha	-11.054
നുണ്ട്	-11.0541
▁Ikkka	-11.0542
OOO	-11.0544
▁Pwo	-11.0546
Z	-11.0547
പോസിറ്റ	-11.0547
▁Dha	-11.0547
▁ഞെക്ക	-11.0551
▁സപ്പോർട്	-11.0553
▁koor	-11.0554
▁തിക	-11.0555
▁varunn	-11.0558
▁പ്രശ്ന	-11.0559
▁chaiy	-11.056
▁വർഷത്ത	-11.0562
▁നിങ്ങൾക്	-11.0563
▁സിംഹ	-11.0564
▁സങ്കട	-11.0566
▁യാണ്	-11.0566
▁releasin	-11.0567
▁aroke	-11.0572
▁അണ്ണാ	-11.0574
kkayo	-11.0574
2016	-11.0574
▁ക്രൈ	-11.0575
▁patu	-11.0576
▁ട്രെ	-11.058
▁num	-11.0582
yallo	-11.0582
marod	-11.0584
king	-11.0585
▁nigalu	-11.0586
▁selecti	-11.0588
്ട്	-11.0588
▁Jayasur	-11.0589
ഷണം	-11.0591
THAN	-11.0592
▁energ	-11.0592
▁iv	-11.0594
▁direct	-11.0595
റിയാൻ	-11.0595
▁Ejjat	-11.0598
▁oorma	-11.0599
hendhi	-11.0599
▁vismayip	-11.0601
▁adichoooo	-11.0602
IGH	-11.0602
▁pradhi	-11.0603
inekal	-11.0603
ന്റമ്മോ	-11.0604
onniyavar	-11.0605
▁mambaz	-11.0605
▁സമ്മതി	-11.0605
▁അന്തസ്	-11.0606
ن	-11.0606
ನ	-11.0606
ಭ	-11.0607
జ	-11.0607
ీ	-11.0607
ె	-11.0607
▁കൃത്യ	-11.0607
▁പ്രധാന	-11.0607
▁choreograph	-11.0607
▁kunjalimaraka	-11.0607
▁തലമുറ	-11.0607
]	-11.0607
Ť	-11.0607
ಗ	-11.0607
ಳ	-11.0607
ഞ്ജിത്തേട്ടൻ	-11.0607
ᴇ	-11.0607
▁Amazing	-11.0607
▁Ernakulam	-11.0607
▁Industry	-11.0607
▁Kidiloski	-11.0607
▁LOCATION	-11.0607
▁Muriyandi	-11.0607
▁Muruka	-11.0607
▁Muvattupuzha	-11.0607
▁Qurbana	-11.0607
▁ROCK	-11.0607
▁TAMILNADU	-11.0607
▁boxoffic	-11.0607
▁confus	-11.0607
▁kittiyirinu	-11.0607
▁netflix	-11.0607
▁nigeria	-11.0607
▁omkv	-11.0607
▁onnitaum	-11.0607
▁penshakthi	-11.0607
▁poovankozhi	-11.0607
▁winner	-11.0607
▁అ	-11.0607
▁അടിസ്ഥാന	-11.0607
▁ആൻഡ്രൂസ്	-11.0607
▁ഇടവകയ	-11.0607
▁ഏഴയലത്ത	-11.0607
▁ഏഷ്യാനെറ്റ	-11.0607
▁കലാസൃഷ്ടി	-11.0607
▁കുറയുകയുമില്ല	-11.0607
▁കൂത്താടും	-11.0607
▁ഖാലിദ്	-11.0607
▁ചിത്രീകരി	-11.0607
▁പാർവതി	-11.0607
▁പൊൻതൂവ	-11.0607
▁പോത്തിറച്ചി	-11.0607
▁പ്രെസെൻസ്	-11.0607
▁ഫാനൊന്നുമല്ല	-11.0607
▁ബോളിവുഡ	-11.0607
▁ഭ്രാന്ത	-11.0607
▁മവ്വനെ	-11.0607
▁മില്യ	-11.0607
▁മോഡുലേഷൻ	-11.0607
▁മോനുസേ	-11.0607
▁റിപീറ്	-11.0607
▁ലക്ഷദ്വീപ്	-11.0607
▁സംഘടനകൾ	-11.0607
▁സസ്പെൻസ	-11.0607
▁സിദ്ധിഖ	-11.0607
▁സെൽഫി	-11.0607
🤧	-11.0607
🤮	-11.0607
🤷	-11.0607
prasthanathin	-11.0607
▁INSIDE	-11.0607
▁MONSTER	-11.0607
▁UNAUTHORI	-11.0607
▁Vyshak	-11.0607
▁andrews	-11.0607
▁branch	-11.0607
▁fraud	-11.0607
▁ravanaprab	-11.0607
▁അന്തോണി	-11.0607
▁കൃഷി	-11.0607
▁ക്രാഫ്റ്റ്	-11.0607
▁ഡിറക്ടറ	-11.0607
▁തിരക്കഥ	-11.0607
▁പ്വോളി	-11.0607
▁ഭീകര	-11.0607
▁മറികട	-11.0607
▁മിശ്ര	-11.0607
▁വലിക്കണ	-11.0607
▁വാക്കുകളില്ല	-11.0607
▁‘	-11.0607
త	-11.0607
▁Usmanee	-11.0607
▁field	-11.0607
▁friendship	-11.0607
▁mekkele	-11.0607
▁ഇതിഹാസ	-11.0607
▁ഡിവൈസ	-11.0607
▁രാവിലെ	-11.0607
▁ഹൃദയ	-11.0607
manavalan	-11.0607
▁----	-11.0607
▁Return	-11.0607
▁figure	-11.0607
▁ചോതിച്ച	-11.0607
▁പ്രേത്യേക	-11.0607
▁രക്ത	-11.0607
▁വടകര	-11.0607
▁വ്യത്യാസ	-11.0607
▁ശാപം	-11.0607
ć	-11.0607
▁Vedikettu	-11.0607
▁WORDS	-11.0607
▁detail	-11.0607
▁impress	-11.0607
▁vijaarch	-11.0607
▁പെരുത്തിഷ്ട	-11.0607
▁സൊൽ	-11.0607
▁അനശ്വര	-11.0607
ā	-11.0607
▁madukunil	-11.0607
▁താമസി	-11.0607
▁നന്മ	-11.0607
▁സിവില	-11.0607
adukiyene	-11.0607
ره	-11.0607
▁duranth	-11.0607
▁ഗണത്തിൽ	-11.0607
▁പൂരപറമ്പ	-11.0607
▁മഞ്ചുച്ചേച്ചി	-11.0607
▁ശരീര	-11.0607
▁🤦‍	-11.0607
▁കിണ്ണം	-11.0607
▁ക്യാരക്ട	-11.0607
▁മിനിമം	-11.0607
▁maamangam	-11.0607
▁കമൻറ്	-11.0607
▁സർജറി	-11.0607
▁തൂക്കിയടി	-11.0607
▁kothiyakunnu	-11.0607
Qatar	-11.0607
▁ezhunelkk	-11.0607
▁jeevidha	-11.0607
@@	-11.0607
▁CRORE	-11.0607
▁Powerful	-11.0607
▁Realistic	-11.0607
▁kidiloski	-11.0607
▁പോരായ്മക	-11.0607
▁mathiyayirunu	-11.0607
▁പടച്ചോനെ	-11.0607
▁ലക്ഷണ	-11.0607
▁WISH	-11.0607
▁jillakkar	-11.0607
▁ഫീലിംഗ്	-11.0607
▁pradeeksha	-11.0607
▁funny	-11.0607
▁vaangich	-11.0607
▁കുന്നം	-11.0607
▁ravanan	-11.0607
UBIN	-11.0607
▁prasnam	-11.0607
▁SriLankans	-11.0607
▁short	-11.0607
▁പുതുമുഖ	-11.0607
▁പ്രദർശ	-11.0607
▁വിശ്വാസ	-11.0607
▁thread	-11.0607
▁Lanka	-11.0607
🤪🤪	-11.0607
▁polliyann	-11.0607
▁നന്നാവട്ടെ	-11.0607
രോമാഞ്ചിഫിക്കേഷൻ	-11.0607
▁റിവ്യൂ	-11.0607
▁muslim	-11.0607
▁സൂക്ഷ	-11.0607
▁സംവിധായ	-11.0607
▁Kasab	-11.0607
▁kidukkaachi	-11.0607
▁fillm	-11.0607
▁കാസ്റ്റിംഗ്	-11.0607
▁ulped	-11.0607
▁Ejjaathi	-11.0607
▁ചൊറിച്ചി	-11.0607
▁സൂപ്പറാ	-11.0607
▁location	-11.0607
▁പുഴ	-11.0607
▁Ippazh	-11.0607
▁pooranmar	-11.0607
▁LUCK	-11.0607
▁pir	-11.0607
▁pradishe	-11.0607
▁rules	-11.0607
▁Kolakolli	-11.0607
▁Kunjappan	-11.0607
▁ABR	-11.0607
▁വിജയമാകട്ടെ	-11.0607
▁Girija	-11.0607
▁പ്രൊഡക്ട	-11.0607
▁Mahesh	-11.0608
▁choriyan	-11.0608
▁ഭാവിച്ചാ	-11.0608
▁pulimurakan	-11.0608
▁ഇല്ലാത്തവര	-11.0608
▁എക്സ്പ	-11.0608
▁eneech	-11.0608
▁Kochunni	-11.0608
▁വിളിപ്പിച്ച	-11.0608
▁DOP	-11.0608
▁jimittolikal	-11.0608
▁oronnonn	-11.0608
Khola	-11.0608
▁wife	-11.0608
▁Perunnal	-11.0608
▁megahit	-11.0608
🥺🥺	-11.0608
▁NRC	-11.0608
▁പുണ്യാളാ	-11.0608
▁ആൽബ	-11.0608
▁അഭിനന്ദനങ്ങൾ	-11.0608
▁സഹോദരി	-11.0608
▁ആകുമല്ലോ	-11.0608
▁Aliyan	-11.0608
▁punjab	-11.0608
▁മറ്റാര	-11.0608
▁വരവുണ്ട്	-11.0608
▁RAJU	-11.0608
▁ബാൻഡ്	-11.0608
▁പൂമരത്തിലെ	-11.0608
▁Evidayo	-11.0608
aanooo	-11.0608
🤙🤙	-11.0608
Zz	-11.0608
▁നന്നായിട്ടുണ്ട്	-11.0608
▁Surya	-11.0609
▁വഴങ്ങു	-11.0609
ലിസിറ്റി	-11.0609
▁മനസ്സിലായി	-11.0609
▁christmas	-11.0609
▁അതിനിട	-11.0609
▁മോശമായി	-11.0609
▁veccha	-11.0609
▁bayankara	-11.0609
▁rajinikanth	-11.0609
▁thudangunnu	-11.0609
tube	-11.0609
▁ഒരേയൊരു	-11.0609
▁enjoy	-11.0609
▁variyar	-11.0609
▁ബേസിൽ	-11.0609
▁bengalikal	-11.0609
▁khureshi	-11.0609
▁കാണുന്നവരുണ്ടോ	-11.0609
▁darshan	-11.0609
▁8.5	-11.0609
▁Twist	-11.0609
▁Jimitt	-11.0609
▁Pramukha	-11.0609
▁ഇങ്ങെടുത്തു	-11.0609
▁njettichu	-11.0609
ayirikkum	-11.0609
▁anusree	-11.0609
▁ബോക്സിൽ	-11.0609
▁വ്യൂസ്	-11.0609
ഷ്യൽ	-11.061
▁kaachal	-11.061
▁ഹിറ്റായ	-11.061
▁ittymani	-11.061
▁SUP	-11.061
MOO	-11.061
▁പടമായിരിക്കും	-11.061
▁masood	-11.061
▁സുന്ദര്‍	-11.061
▁Enthina	-11.061
▁parayandallo	-11.061
▁172	-11.061
▁pwlichu	-11.061
▁Polichadukki	-11.061
▁ബഹ	-11.061
▁miduk	-11.061
▁ambooo	-11.061
▁suriya	-11.061
▁Background	-11.0611
▁uyirr	-11.0611
▁ഇന്റർ	-11.0611
▁kidilol	-11.0611
▁ariyuo	-11.0611
▁പ്രേതി	-11.0611
▁enthayirikkum	-11.0611
▁കരുതിയില്ല	-11.0611
▁fool	-11.0611
▁പുറപ്പാടാ	-11.0611
▁aunty	-11.0611
aarrnn	-11.0611
വിയറ്റ്	-11.0611
▁DJ	-11.0611
EEEE	-11.0611
▁കേട്ടിട്ടുണ്ട്	-11.0611
▁വിശ്വസിക്കുന്നു	-11.0611
▁ithenthonn	-11.0612
▁jappan	-11.0612
▁മൂത്തോന്‍	-11.0612
▁insta	-11.0612
niyum	-11.0612
ഗാണ്ടിലിറിക്	-11.0612
▁evade	-11.0612
▁ആവർത്തനം	-11.0612
▁Ahalia	-11.0612
▁booked	-11.0612
▁kidakkunu	-11.0612
▁peak	-11.0612
▁pouly	-11.0613
▁tiru	-11.0613
▁കാത്തിരിപ്പ്	-11.0613
▁സാക്ഷ	-11.0613
▁avaruthu	-11.0613
▁പോരട്ടെ	-11.0613
▁🤘🤘	-11.0613
▁japan	-11.0613
▁interesting	-11.0613
halid	-11.0614
▁തീട്ടം	-11.0614
▁ഇതെന്തോന്ന	-11.0614
▁kittatte	-11.0614
▁manakkunnu	-11.0614
▁Actor	-11.0614
തുമായ	-11.0614
▁Vishak	-11.0614
▁ഹീറോയിസം	-11.0614
▁ഓടാൻ	-11.0614
▁sarkar	-11.0614
▁kumbalangy	-11.0614
▁panthal	-11.0615
▁നേട്ടം	-11.0615
▁koluthi	-11.0615
ONS	-11.0615
▁manakunu	-11.0615
▁swasika	-11.0615
▁Kolamass	-11.0615
▁troll	-11.0615
▁nadanmarude	-11.0616
▁License	-11.0616
▁enthukond	-11.0616
▁theerumanam	-11.0616
▁munju	-11.0616
▁jaison	-11.0616
▁pilller	-11.0616
▁ഇറക്കാനുള്ള	-11.0616
▁ellarkkum	-11.0616
▁ധീര	-11.0616
▁തമ്മി	-11.0616
▁Kurian	-11.0616
▁കാണണേ	-11.0617
▁കാണിക്കുന്നില്ല	-11.0617
sikir	-11.0617
▁hitavatte	-11.0617
▁സഹകര	-11.0617
▁അവസാനിച്ചു	-11.0617
▁mahanmar	-11.0617
▁thonunilla	-11.0618
▁varika	-11.0618
▁thamar	-11.0618
▁assal	-11.0618
▁kungfu	-11.0618
▁puthumay	-11.0618
▁manik	-11.0619
▁kadakkum	-11.0619
▁ലാലേട്ടന്‍	-11.0619
▁ishtappettavar	-11.0619
▁ചെയ്യുന്നതാണ്	-11.0619
പത്തനം	-11.0619
▁Idivett	-11.0619
▁നടിമാര	-11.0619
ുകളിൽ	-11.062
റിയാം	-11.062
▁ഇഷ്ടപെടും	-11.062
▁ചേർന്ന	-11.062
▁Balakrishna	-11.062
▁Latten	-11.062
▁Mathram	-11.062
iriyani	-11.062
▁ടീംസ്	-11.062
▁മെമ്മറീസ	-11.062
ദ്	-11.062
pratheeshikkunnu	-11.0621
▁avunnilal	-11.0621
▁orama	-11.0621
▁Marichu	-11.0621
▁ishttapettavar	-11.0621
▁sradich	-11.0621
yeeeaahh	-11.0621
▁ഓൺ	-11.0621
▁ടെക്	-11.0622
▁ആവുന്നത്	-11.0622
▁mumbai	-11.0622
▁vilikum	-11.0622
▁sep	-11.0622
▁Nights	-11.0623
▁mamuka	-11.0623
▁മടുത്തു	-11.0623
വർണ്ണ	-11.0623
▁വിത	-11.0623
▁sathya	-11.0623
▁TV	-11.0623
▁ഉത്സവ	-11.0623
▁sangadam	-11.0623
▁samyam	-11.0623
മേളം	-11.0623
▁tonunu	-11.0624
▁kalkki	-11.0624
▁oraal	-11.0624
ADIPOL	-11.0624
▁ormavannu	-11.0624
▁1.9	-11.0624
▁irikunne	-11.0624
▁02:	-11.0625
▁kollamass	-11.0625
▁മാണിക്യ	-11.0625
▁tharumo	-11.0626
▁പോലുണ്ട്	-11.0626
▁mathramaano	-11.0626
▁ആയിട്ടുണ്ട്	-11.0626
▁ഹൗ	-11.0627
▁avat	-11.0627
▁thanneyano	-11.0627
ോളൂ	-11.0627
▁ജില്ല	-11.0627
▁maaari	-11.0628
▁നമ്പറുക	-11.0628
▁ഷോട്ട	-11.0628
idikity	-11.0628
▁ചെയ്യുമ്പോൾ	-11.0628
▁bhayangara	-11.0628
▁Kochu	-11.0628
▁Kumbalang	-11.0629
▁glamara	-11.0629
▁pannunga	-11.0629
LT	-11.0629
▁irangatte	-11.0629
▁പോകണം	-11.0629
▁Trali	-11.0629
mathukut	-11.063
▁maduthu	-11.063
▁Some	-11.063
▁paavam	-11.063
▁koodoola	-11.0631
▁rock	-11.0631
▁istham	-11.0631
ndavark	-11.0631
▁മാറ്റിയോ	-11.0631
▁കോട്ടയത്തു	-11.0631
▁prak	-11.0631
▁വളിപ്പ്	-11.0632
▁ലാലേ	-11.0632
▁polore	-11.0632
ിയോ	-11.0632
▁ഹെൽപ്	-11.0633
▁mukham	-11.0633
▁adichavan	-11.0633
▁വന്നല്ലോ	-11.0633
▁both	-11.0634
കാലം	-11.0634
▁Nayakan	-11.0634
▁updat	-11.0635
▁കളർ	-11.0635
▁chithram	-11.0635
▁kuranju	-11.0636
▁kandirikkum	-11.0636
▁Makkaleee	-11.0637
▁ingedukkuva	-11.0637
▁fast	-11.0637
മിനുട്ട	-11.0637
▁വന്നൂ	-11.0637
▁പിറവിയെടു	-11.0638
ungfu	-11.064
▁സുരാജേട്ടന്	-11.064
▁Pic	-11.064
▁acha	-11.0642
rudh	-11.0642
▁ശെ	-11.0642
▁cheyyilla	-11.0643
▁Hindukal	-11.0643
▁Shyam	-11.0643
▁Sure	-11.0643
▁lalettaaaaa	-11.0644
▁kus	-11.0644
▁മയം	-11.0644
▁ellaarum	-11.0644
▁ആട്ടം	-11.0644
▁mathrano	-11.0645
perunnal	-11.0646
▁manasilakum	-11.0646
▁shoot	-11.0646
▁ഏറെ	-11.0646
▁abhiprayam	-11.0647
▁അന്നേ	-11.0647
▁Manas	-11.0648
▁games	-11.0648
▁ആരുമില്ല	-11.0648
▁urappichu	-11.0648
▁വരില്ല	-11.0648
▁Umma	-11.0649
▁എട്ടു	-11.0649
ithittundu	-11.0649
▁മാജിക്	-11.0649
▁theatreilpo	-11.0649
▁vicharikun	-11.065
▁ENT	-11.065
▁nikkaan	-11.065
▁karyamilla	-11.0651
▁auto	-11.0652
▁parayunavar	-11.0653
▁കിന്റ	-11.0653
▁സെമിത്തേരി	-11.0654
▁Thomas	-11.0654
▁bakthan	-11.0654
▁mig	-11.0654
▁ayitundu	-11.0654
▁kanaran	-11.0654
▁vijayikum	-11.0655
▁lovers	-11.0655
nmaar	-11.0656
▁കണ്ടില്ലേ	-11.0656
▁deshyam	-11.0656
▁ഗ്രാമ	-11.0656
▁തന്നേ	-11.0656
▁Christiansin	-11.0656
▁വേണ്ടത്	-11.0657
▁illuminat	-11.0657
▁വിടമാട്ടേൻ	-11.0657
▁Vannavar	-11.0658
▁പറഞ്ഞവർ	-11.0658
▁അതാണല്ലോ	-11.0658
▁swag	-11.0659
▁120	-11.0659
▁masterpiece	-11.0659
▁ഇഷ്	-11.0659
inayi	-11.066
pradhib	-11.066
▁kandille	-11.0661
▁namichu	-11.0661
▁BR	-11.0661
▁chech	-11.0663
zhanmaru	-11.0663
▁നടന്മാർ	-11.0663
▁pundach	-11.0663
onmax	-11.0663
▁parayilla	-11.0664
യിരി	-11.0664
▁ദൂര	-11.0666
▁thee	-11.0667
▁Ishtam	-11.0667
▁aarnnu	-11.0668
▁mamagam	-11.0668
▁Ticket	-11.0668
▁ithoke	-11.0668
▁പറ്റോ	-11.0668
▁aanenkil	-11.0668
▁എന്‍	-11.0669
hyco	-11.067
▁ariyanam	-11.067
▁ചുരു	-11.067
▁പാലം	-11.067
▁Rakshayum	-11.067
ീറ്റ	-11.067
▁നിന്നാണ്	-11.067
▁ശ്രദ്ധിച്ചവർ	-11.0671
nic	-11.0672
ീടെ	-11.0674
lastic	-11.0674
▁പയ്യൻ	-11.0675
ത്രിക	-11.0675
INE	-11.0676
▁തുടർന്ന	-11.0676
▁illayo	-11.0677
▁Malayalikal	-11.0679
thukal	-11.0679
തുവിൽ	-11.068
PERS	-11.0681
▁Ethine	-11.0681
▁ejjadhi	-11.0681
ടുത്തു	-11.0682
▁വാടാ	-11.0682
IKAL	-11.0682
varshathin	-11.0683
▁Ela	-11.0683
▁ഇറങ്ങുന്നത്	-11.0683
▁തെളിഞ്ഞ	-11.0683
▁പറയുവല്ല	-11.0685
▁kuzh	-11.0687
▁purathu	-11.0687
▁poliyaan	-11.0688
▁jen	-11.0688
▁Kananam	-11.0688
▁nagar	-11.0689
▁🤩🥰	-11.0689
▁pattunnu	-11.0689
▁വരണം	-11.0689
▁kittilla	-11.069
▁Jeyetta	-11.069
▁Ooh	-11.069
▁varanam	-11.0691
▁elaa	-11.0691
▁Suraaj	-11.0691
▁achaayan	-11.0693
റോയ്	-11.0695
sfi	-11.0695
▁idhan	-11.0696
val	-11.0696
▁aarenkilum	-11.0697
▁kandattu	-11.0698
▁polathe	-11.0698
▁മിക്ക	-11.0699
▁Ada	-11.0699
▁kamal	-11.0699
1:13	-11.0699
Script	-11.07
▁masssss	-11.0701
▁pwoliiiii	-11.0702
▁aahnu	-11.0702
▁tharum	-11.0703
▁kaliyakki	-11.0705
▁chavaru	-11.0705
▁rajadhi	-11.0705
▁parayunu	-11.0706
▁ഇട്ടു	-11.0707
▁nikk	-11.0707
▁ബാക്ക്	-11.0709
▁ninakk	-11.0709
▁company	-11.071
able	-11.071
aleyum	-11.0711
▁Kollaam	-11.0711
▁ഡിഗ്രേ	-11.0711
dokke	-11.0711
്മജ	-11.0713
▁niranj	-11.0713
ോളും	-11.0713
▁sadhya	-11.0713
▁kanunnu	-11.0715
ദയവു	-11.0715
▁eduku	-11.0715
▁kanikkum	-11.0716
▁Katha	-11.0717
▁haii	-11.0718
ലങ്ങ	-11.0718
മരം	-11.0719
▁Final	-11.072
▁വാരിയർ	-11.0722
▁ചു	-11.0722
▁chuvapp	-11.0724
malla	-11.0724
▁etho	-11.0725
▁Enda	-11.0725
nel	-11.0726
▁mamookkaa	-11.0726
▁[	-11.0726
▁താരം	-11.0727
▁mati	-11.0728
▁നാഷണ	-11.0728
▁പ്രോമ	-11.0729
▁wish	-11.0729
▁തത്തുമ്മ	-11.0729
▁poye	-11.0731
▁JAY	-11.0731
▁പേജ	-11.0732
idaikk	-11.0734
▁Patha	-11.0734
ൂര	-11.0734
▁pokaruth	-11.0735
▁food	-11.0735
Assal	-11.0736
aaannn	-11.0736
▁ദാരിദ്ര്യം	-11.0737
▁കമ്മട്ടിപ്പാടം	-11.0737
ettaaa	-11.0738
▁visha	-11.0738
▁edukkum	-11.0739
▁njekki	-11.0739
▁makkalae	-11.074
▁ento	-11.074
▁prach	-11.0741
▁psyco	-11.0741
▁Ithenth	-11.0742
▁vayass	-11.0744
ndi	-11.0744
▁പ്രത	-11.0747
▁ആയില്ല	-11.0747
▁BO	-11.0748
▁Luciferine	-11.0749
▁FE	-11.075
▁Ayye	-11.0751
▁കൃഷ്ണ	-11.0753
ളു	-11.0755
▁pokam	-11.0756
▁Singa	-11.0757
▁ലേറ്റ	-11.0757
▁Pola	-11.0758
▁sherikum	-11.0758
▁പൂര	-11.0758
▁koodu	-11.0759
▁പുറം	-11.0759
▁mathramanoo	-11.076
▁Com	-11.0762
▁പടത്തിനെ	-11.0762
ല്ലാത്ത	-11.0762
ാരും	-11.0762
itilla	-11.0764
▁minnichekk	-11.0764
▁mill	-11.0766
▁kanunnathin	-11.0766
ുണ്ടല്ലോ	-11.0766
▁kozhapamil	-11.0766
▁പ്രകാശ	-11.0767
AMBA	-11.0767
▁0.	-11.0768
▁onnumilla	-11.0769
▁പൊട്ടിക്ക്	-11.077
▁kandittullatha	-11.0771
hajar	-11.0771
▁aga	-11.0772
▁Manikya	-11.0773
▁maala	-11.0775
▁Moonu	-11.0776
▁kiduvanall	-11.0777
▁Films	-11.0777
▁കഴു	-11.0777
▁thoori	-11.0778
▁തോന്നും	-11.0779
▁അഭി	-11.078
etan	-11.078
avathaaram	-11.0781
ttilla	-11.0781
▁aadyam	-11.0782
▁mik	-11.0782
▁2016	-11.0783
▁Maar	-11.0783
▁polichadaki	-11.0783
iyar	-11.0784
▁indaloo	-11.0784
▁Ennit	-11.0786
▁vaishak	-11.0786
▁nilkkunna	-11.0788
▁വാക്ക്	-11.079
ida	-11.0792
▁നീയൊ	-11.0793
▁dialogu	-11.0794
ega	-11.0795
▁mumbe	-11.0795
aaaaaaaa	-11.0795
▁197	-11.0796
▁Pokkiri	-11.0797
▁കളയാ	-11.0798
▁pin	-11.0798
▁🥰🥰🥰🥰	-11.0799
▁ez	-11.0802
▁........	-11.0802
▁നാട്ടുകാര	-11.0802
▁ഇരട്ട	-11.0803
adathi	-11.0804
cu	-11.0804
▁core	-11.0809
▁kaanunne	-11.0809
▁epp	-11.081
▁ponam	-11.081
▁നല്ലൊര	-11.0812
▁ഇയാള	-11.0812
.1	-11.0812
▁amen	-11.0813
jjal	-11.0813
▁Intro	-11.0813
▁orkku	-11.0815
ippichathu	-11.0819
▁kidukkachi	-11.082
▁sambavich	-11.082
▁Endammo	-11.082
വരവായി	-11.082
FF	-11.0821
▁sidhiq	-11.0822
▁ഉയ	-11.0823
ായിട്ട	-11.0824
▁കൊണ്ടിരിക്ക	-11.0826
വിജയാശംസകളും	-11.0827
▁ponnno	-11.0828
▁അമിതാ	-11.0828
agarkum	-11.0829
▁റോളുകള	-11.0829
▁THER	-11.0831
ullavr	-11.0835
െക്ക്	-11.0836
▁pravs	-11.0838
യങ്ങളെ	-11.0839
ire	-11.084
▁congratulation	-11.0843
▁KOLLAM	-11.0843
▁malayalath	-11.0844
▁adha	-11.0845
▁kidukum	-11.0845
▁akatte	-11.0848
▁villanis	-11.0848
▁etrayay	-11.085
lavala	-11.085
▁aaano	-11.0852
▁ishtta	-11.0853
▁jojo	-11.0853
▁kanunnathu	-11.0854
▁Laksh	-11.0854
ikkante	-11.0855
▁സമയത്ത	-11.0858
▁kashttamayipo	-11.0859
▁സംഭവിച്ച	-11.0859
▁karrik	-11.0861
▁ivad	-11.0866
rd	-11.0868
▁poole	-11.0869
week	-11.0869
▁illayirunnu	-11.0872
▁boar	-11.0873
▁aavat	-11.0876
▁കാശിന	-11.0876
▁OUT	-11.0877
▁സാധിക്ക	-11.0877
▁പാർട്ട	-11.0878
▁ದ	-11.0878
▁subcribe	-11.0879
▁kedan	-11.0879
▁kopp	-11.088
▁തകർപ്പ	-11.088
▁Ithanu	-11.088
▁കാലമ	-11.0881
▁ആർട്ട	-11.0882
▁tharath	-11.0883
▁thonnum	-11.0883
▁aake	-11.0883
▁LALLETTA	-11.0883
പെട	-11.0883
ttymaani	-11.0884
▁MAMANGAM	-11.0884
85	-11.0884
▁kazinja	-11.0884
▁MARANA	-11.0885
ural	-11.089
യാടാ	-11.089
▁vana	-11.0891
▁bosse	-11.0892
▁polli	-11.0892
▁കൊച്ചി	-11.0893
▁venu	-11.0893
దు	-11.0895
ountries	-11.0895
ackground	-11.0896
ിയിട്ടു	-11.0896
hey	-11.0897
kidipp	-11.0898
PPO	-11.09
▁thakarar	-11.0901
▁aayene	-11.0902
▁00:5	-11.0904
▁അക്കൗണ്ട	-11.0904
yille	-11.0907
▁urappich	-11.0907
▁തല്ല	-11.0907
▁yeth	-11.0908
▁str	-11.0909
▁kandapola	-11.0913
▁സാഹ	-11.0915
▁adikkanam	-11.0917
പറമ്പ	-11.0918
▁മനസ്സിലാവാത്ത	-11.0918
▁aniyanmar	-11.0918
▁ഷെയ്	-11.0921
maya	-11.0921
not	-11.0922
▁nokana	-11.0926
AAAA	-11.0929
▁avark	-11.093
▁സിദ്ദിക്ക	-11.093
▁mwone	-11.0932
▁പ്രാവി	-11.0932
-2	-11.0932
▁keralathile	-11.0933
▁Haha	-11.0933
iiiiii	-11.0935
▁Mess	-11.0936
athano	-11.0936
▁poliy	-11.0937
ces	-11.0938
▁wide	-11.0938
▁ലൂക്ക	-11.0939
▁ഒറ്റക്ക	-11.094
▁1.0	-11.094
▁ആലോചിച്ച	-11.0942
ദിലീപേട്ടൻ	-11.0943
▁irag	-11.0943
HANNE	-11.0943
▁baaki	-11.0944
pt	-11.0945
▁padichapo	-11.0947
▁لا	-11.0947
▁കുള	-11.0947
▁രംഗങ്ങള	-11.0948
▁പാടി	-11.0951
▁ഓര	-11.0953
aakkiyath	-11.0954
▁ദിലീപിന്	-11.0956
▁Veruthe	-11.0958
arakam	-11.0961
▁ജൻ	-11.0961
shayi	-11.0962
akaamsha	-11.0968
▁സ്വാസൂട്ടി	-11.0969
▁സാറിന്	-11.0972
▁kolluv	-11.0975
▁edukkuva	-11.0979
varundo	-11.0979
▁സ്പാ	-11.098
▁nadakunath	-11.0982
othukki	-11.0983
▁Laaletta	-11.0984
▁ival	-11.0985
▁ഫി	-11.0986
▁Our	-11.0991
▁ദാസ്	-11.0993
▁ariye	-11.0993
▁herois	-11.0995
llooo	-11.0995
dos	-11.0996
▁ചാനലു	-11.0999
▁കണ്ടോണ്ടിരിക്ക	-11.1
▁ആയിരുന്നേ	-11.1001
rapullavar	-11.1001
dagiya	-11.1003
▁odukka	-11.1008
▁undayirunn	-11.1009
▁Samshay	-11.1009
▁illath	-11.1009
how	-11.101
ngale	-11.101
..🤔	-11.101
▁addich	-11.1012
▁gaandu	-11.1012
▁viral	-11.1013
▁congrat	-11.1015
▁പോകു	-11.1015
▁ഇന്റസ്ട്രി	-11.1016
▁Cheru	-11.1017
▁avasaan	-11.1017
▁വണ്ടി	-11.1019
▁Nde	-11.1019
▁ikkaye	-11.102
▁Rajuvettante	-11.1023
▁മൈര	-11.1024
േക്കണേ	-11.1024
KUM	-11.1024
dhikam	-11.1025
▁theerka	-11.1026
▁Kollaa	-11.1027
▁ithepol	-11.1028
ള്ളി	-11.1029
▁ak	-11.1034
ikan	-11.1035
ർസ്	-11.1037
▁വെല്ലു	-11.1039
▁DIRECT	-11.104
▁Karikk	-11.1045
▁hrs	-11.1046
tholam	-11.1047
▁mwth	-11.1047
▁indavum	-11.1049
ichath	-11.1052
tation	-11.1055
▁കൂത	-11.1056
നിലെ	-11.1058
▁kuranj	-11.1059
▁ഡബി	-11.106
▁kutiy	-11.1061
▁Parav	-11.1062
ബ്രഹ	-11.1065
...🤣	-11.1066
ilad	-11.1067
nillaa	-11.1071
▁കൊടുത്ത്	-11.1071
▁പിടിച്ചവ	-11.1074
▁ithrak	-11.1075
▁സമൂഹത്തി	-11.1076
▁Yaar	-11.1079
▁ആം	-11.1081
▁kittya	-11.1082
▁SA	-11.1085
▁Kidil	-11.1085
▁thoniyath	-11.1092
▁nil	-11.1094
▁Enter	-11.1094
▁shar	-11.1094
▁പിള്ളേർക്ക	-11.1095
▁vayy	-11.1095
▁aaalaaa	-11.1096
▁tto	-11.1097
▁മധു	-11.1099
▁വായിക്ക	-11.1102
▁Ikkay	-11.1103
▁nokam	-11.1105
▁padipich	-11.1107
▁fantas	-11.1107
▁Ikkaaa	-11.1108
73	-11.1108
thichu	-11.111
▁kunju	-11.111
gilum	-11.1111
vandha	-11.1111
▁Nor	-11.1112
athiyam	-11.1117
▁പല്ല	-11.1117
▁panikk	-11.1118
▁tril	-11.112
ിക്കുന്നവർ	-11.1123
▁marupadiya	-11.1125
▁dhar	-11.1126
ura	-11.1127
▁takark	-11.1131
MW	-11.1131
▁sounda	-11.1133
''	-11.1134
▁kariy	-11.1134
dathi	-11.1136
▁Kandappo	-11.1138
▁vela	-11.1139
▁Kidila	-11.1141
സൽ	-11.1142
lag	-11.1142
ajay	-11.1143
▁🤐	-11.1145
▁മഞ്ജുചേച്ച	-11.1145
▁നിരാശപ്പെടുത്തി	-11.1146
▁thayoli	-11.1147
liiii	-11.1148
uuuuuuu	-11.1153
▁വരാത്ത	-11.1156
humma	-11.116
▁Ittimaniyil	-11.116
anju	-11.116
mmm	-11.116
▁cheythittund	-11.1161
▁yum	-11.1163
▁അനിയന	-11.1163
uys	-11.1164
analle	-11.1164
gu	-11.1167
▁noo	-11.1174
▁അവസാനിപ്പിച്ച	-11.1175
▁Brillian	-11.1175
▁Thal	-11.1181
ാത്തോണ	-11.1184
ാനം	-11.1186
▁nalk	-11.1186
▁pullar	-11.1189
▁Vell	-11.1192
▁gun	-11.1193
mon	-11.1194
▁ketten	-11.1195
▁Hy	-11.1196
tive	-11.12
▁സെറ്റ	-11.1204
▁മമ്മുക്കാ	-11.1207
റത്	-11.1208
▁pottiche	-11.1208
▁pidikan	-11.1209
▁teaserin	-11.1211
ബ	-11.1212
ന്മാര	-11.1213
▁ആരാധകര	-11.1215
attu	-11.1218
▁കുഞ്ഞാലിയ	-11.1218
adeni	-11.122
▁carrie	-11.1222
ജോ	-11.1224
▁punyalan	-11.1227
hangal	-11.1228
lock	-11.1229
▁enk	-11.1232
inc	-11.1233
▁പെരുന്നാള്	-11.1233
eatan	-11.1236
▁SI	-11.1237
aanenkilum	-11.1242
marikkar	-11.1242
ിച്ചിരിക്കുന്നു	-11.1244
▁WOR	-11.1245
▁parajayap	-11.1245
ോള്	-11.1248
adha	-11.125
കളേ	-11.125
arkenkilum	-11.1251
khan	-11.1253
eettu	-11.1257
▁അത്യു	-11.1257
▁yet	-11.1257
▁siddiq	-11.1257
arelum	-11.1258
▁എവിടുന്ന	-11.1259
iv	-11.1261
ാല്‍	-11.1261
ജയിക്കും	-11.1266
▁VER	-11.1268
▁appol	-11.127
▁punya	-11.1271
▁കഴിയുമ്പോ	-11.1272
ിക്കുമ്പോൾ	-11.1274
hy	-11.1275
ennal	-11.1276
▁kai	-11.1277
▁പോയ്	-11.1277
BE	-11.1283
▁കഴി	-11.1283
▁കേൾക്കു	-11.1284
DON	-11.1285
▁ammo	-11.1285
nathe	-11.1286
▁GO	-11.1288
▁deric	-11.1296
▁kettapol	-11.1297
▁പ്രത്യ	-11.1297
മല്ല	-11.1299
dutha	-11.1302
▁thol	-11.1305
▁ബാങ്	-11.1306
▁5.2	-11.1307
▁sug	-11.1312
▁gues	-11.1314
▁വന്നവര	-11.1317
ു൦	-11.1317
▁ഷൈന	-11.1319
▁Le	-11.132
shyam	-11.132
▁istapett	-11.1323
▁abhra	-11.1324
▁com	-11.1325
▁ഇങ്ങനേ	-11.1325
▁undaku	-11.1326
maanga	-11.1328
▁hr	-11.1331
▁apamanikk	-11.1331
CHA	-11.1332
ure	-11.1335
▁nannaava	-11.1341
▁Dr	-11.1341
▁kaaran	-11.1342
▁നടന്മാര	-11.1342
ele	-11.1342
നീയ	-11.1342
▁podu	-11.1343
▁കണ്ടുകഴിഞ്ഞ	-11.1344
chechi	-11.1344
▁kaanikunn	-11.1348
URA	-11.135
▁sta	-11.1351
ksha	-11.1352
▁sham	-11.1354
▁karna	-11.1355
▁ottaka	-11.1355
▁ullata	-11.1356
ngalu	-11.1356
▁hoo	-11.1358
▁heav	-11.1362
▁koodath	-11.1363
▁പ്രേക്ഷക	-11.1363
▁ലുസിഫെറ	-11.1364
▁ട്രയില	-11.1365
▁വാര	-11.1365
▁പ്രേ	-11.137
▁കൊട	-11.1371
▁AL	-11.1371
▁Tho	-11.1375
arelumundo	-11.1379
▁nn	-11.1384
ക്കൂ	-11.1384
▁angh	-11.1384
RIBI	-11.1385
▁pravishya	-11.1387
athilulla	-11.1392
ോളാം	-11.1394
ിഞ്ഞു	-11.1395
...🤔	-11.1397
▁തിര	-11.1405
▁laleatt	-11.1406
▁ആന	-11.1409
▁തുടങ്ങ	-11.1411
▁kazhiv	-11.1412
ttupovum	-11.1413
▁Dileepetta	-11.1414
▁aaal	-11.1418
ebi	-11.1419
lll	-11.1419
▁ഇരുന്ന	-11.1421
ഡി	-11.1422
▁Nigh	-11.1423
ത്വ	-11.1424
▁ബോസ	-11.1425
unu	-11.1426
▁Name	-11.1426
▁vis	-11.1426
▁konduvan	-11.1428
▁kalang	-11.1429
▁വളർത്ത	-11.1429
eede	-11.1431
▁dia	-11.1431
ക്കരുതേ	-11.1432
yeee	-11.1432
ഖ	-11.1434
▁പീസ	-11.1436
▁undeg	-11.1442
▁Fu	-11.1444
illayirunnu	-11.1444
▁Anth	-11.1444
തുപോലെ	-11.1446
▁chakocha	-11.1448
▁thakarkum	-11.1451
▁odum	-11.1451
▁jeevikku	-11.1454
irunna	-11.1454
▁puthumu	-11.1456
ul	-11.1463
ekkal	-11.1466
🤭🤭	-11.1466
▁cheythaal	-11.1468
ngilum	-11.1471
▁മൂഞ്ച	-11.1473
▁maravi	-11.1474
▁paranjond	-11.1475
▁മനസിലാക	-11.1475
anta	-11.1478
nly	-11.1482
▁തുറന്ന	-11.1482
▁adichal	-11.1483
▁Njangalu	-11.1489
07	-11.1491
rikkunnu	-11.1493
etha	-11.1495
▁Ki	-11.1495
ppama	-11.1497
▁ellav	-11.1498
▁kanumpo	-11.1498
▁aavan	-11.1504
▁യൂ	-11.1504
anchayat	-11.1505
▁ib	-11.1505
▁ഗ്ര	-11.1506
adipoli	-11.1508
ary	-11.1509
▁paatt	-11.151
ർവ	-11.1512
▁സംവിധായകന	-11.1515
▁പിറന്നാ	-11.1517
adakkam	-11.1518
akan	-11.1519
▁പ്രേക്ഷകർ	-11.1519
▁Mammunni	-11.1522
neyum	-11.1522
eppo	-11.1523
▁അമ്മച്ചി	-11.1528
▁chang	-11.1531
▁visham	-11.1532
69	-11.1534
▁sem	-11.1536
ായിരുന്ന	-11.1546
ot	-11.1547
▁ഇറക്ക	-11.1548
kumennu	-11.1548
mmuk	-11.1554
ിലാ	-11.1554
diyan	-11.1555
▁ലൈഫി	-11.1559
▁muthu	-11.1559
hristmas	-11.1567
▁ithenkil	-11.157
▁പ്രദീക്ഷ	-11.1574
▁തന	-11.1575
സിനിമയാണോ	-11.1576
▁തോമ	-11.1579
halapath	-11.1581
eattan	-11.1582
▁ലൈക്കടിച്ച	-11.1582
▁പ്രസൻസ	-11.1586
kooda	-11.1587
aayitta	-11.1588
▁ishtm	-11.1589
..🤗🤗	-11.159
▁ക്ലബ്ബ	-11.1593
▁kurav	-11.1593
▁varanda	-11.1596
▁സീനുക	-11.1598
▁ഇറ	-11.1605
kollaaam	-11.1606
luda	-11.1609
▁മരിച്ച	-11.161
ടർ	-11.1613
▁udan	-11.1627
▁kaark	-11.163
▁കാശു	-11.163
▁kanubo	-11.1631
▁Yen	-11.1634
ിനും	-11.1637
▁nigale	-11.1638
ല്ല്	-11.1639
▁thaa	-11.1639
ദി	-11.164
ുവല്ല	-11.1642
▁അയാള	-11.1643
ndhra	-11.1645
pinna	-11.1646
▁എങ്ങോട്ട	-11.1647
khila	-11.1649
▁thag	-11.165
▁returns	-11.165
▁വെള്ളി	-11.1651
▁താങ്ക	-11.1652
▁kalak	-11.1654
▁poliyalle	-11.1655
യവർ	-11.1655
എല്ലാവരു	-11.1656
കൊടുത്ത	-11.1659
ക്കെയോ	-11.166
ORE	-11.1661
▁terr	-11.1662
▁did	-11.1662
▁tharunnath	-11.1663
▁ബ്രദറിന	-11.1665
/5	-11.1666
▁ori	-11.1667
യിട്ട	-11.1667
▁daivame	-11.1668
▁ലഭിക്കു	-11.167
PLE	-11.1674
▁tanneya	-11.1678
▁പുതുമ	-11.1679
rith	-11.1681
▁cheyo	-11.1682
▁Ingal	-11.1684
▁caree	-11.1684
സൂ	-11.1689
ണെങ്കിൽ	-11.1689
▁adikun	-11.169
ൻഡ്	-11.169
▁ഇൻഡ്	-11.1691
▁നിർമ്മ	-11.1691
onn	-11.1694
▁akam	-11.1694
▁പറ്റുമെ	-11.1696
aaaaaaaaa	-11.1697
▁varee	-11.1699
▁pretheeksha	-11.1702
urappa	-11.1703
▁mammookay	-11.1705
▁akumboz	-11.1706
▁veyk	-11.171
raaj	-11.1711
▁kaanunnund	-11.1713
▁mathiy	-11.1714
▁മാമാങ്കത്തെ	-11.1714
adikoo	-11.1714
▁karanjo	-11.1716
ICE	-11.1717
▁divasa	-11.1719
tw	-11.1719
▁Wat	-11.1719
▁cheyam	-11.172
▁cheer	-11.1722
...🤩	-11.1723
▁phon	-11.1724
lloooo	-11.1724
▁nay	-11.1727
▁Onne	-11.1729
anaada	-11.173
jj	-11.1736
9-	-11.1738
onadey	-11.1738
▁ലോഡ	-11.174
▁Ed	-11.1741
▁Mav	-11.1744
▁ഇപ്പോഴു	-11.1746
ഴിവുള്ള	-11.1746
▁karana	-11.1747
▁നന്ന	-11.1748
▁ഇഷ്ടമുള്ളവ	-11.1751
unnat	-11.1751
nnara	-11.1753
▁സൂപ്പർസ്റ്റാറ	-11.1753
kaaan	-11.1754
▁koodum	-11.1754
▁ഉള	-11.1759
▁പരമ	-11.1765
▁സംസാരിക്കു	-11.1767
ukku	-11.1769
▁kanditund	-11.1771
▁Qu	-11.1773
▁എനിക്കൊരു	-11.1774
▁ponath	-11.1774
▁Ya	-11.1775
nnunav	-11.1775
▁undalo	-11.1782
khar	-11.1783
▁റോള	-11.1787
avatte	-11.1787
▁prathish	-11.1788
▁veera	-11.1792
▁ചെയ്തിരിക്കുന്ന	-11.1792
▁കളെ	-11.1797
▁അടിച്ചവന്മാ	-11.1798
▁Freezerin	-11.1801
▁rem	-11.1804
▁3.1	-11.1805
▁kandech	-11.1805
▁similarit	-11.1807
▁laaletta	-11.1813
▁mammutt	-11.1817
▁mammoookkkaaa	-11.1818
▁athre	-11.182
yathil	-11.1823
▁നോക്കിയ	-11.1824
▁Wa	-11.1825
athre	-11.183
പ്പന	-11.183
yayi	-11.1832
▁vicharich	-11.1832
▁edukk	-11.1834
▁abo	-11.1836
riya	-11.1838
ക്കൂട്ട	-11.1842
▁kanun	-11.1842
▁matr	-11.1842
11	-11.1845
haya	-11.1845
thonum	-11.185
▁kodukkan	-11.1852
ics	-11.1857
▁tata	-11.1858
▁vanth	-11.186
edukku	-11.1864
▁Nera	-11.1868
▁പാറ	-11.1869
▁pw	-11.187
മിനി	-11.1873
▁undayal	-11.1875
▁thalay	-11.188
▁Oberoik	-11.1882
▁ani	-11.1882
▁parish	-11.1883
റാണി	-11.1884
▁Roman	-11.1884
▁Chetan	-11.1886
▁SL	-11.1888
oottam	-11.1889
▁പടമ	-11.1891
▁VEL	-11.1891
▁ജീവിച്ചിര	-11.1891
▁adhu	-11.1899
▁ഫെ	-11.19
▁thonniy	-11.1902
നാട്	-11.1903
gangal	-11.1904
pad	-11.1908
▁pati	-11.1908
cence	-11.1909
🤔🤔🤔🤔	-11.1913
▁pattun	-11.1917
eedham	-11.1922
mbi	-11.1922
▁anger	-11.1923
▁തുര	-11.1925
▁ivar	-11.1932
▁adhe	-11.1933
▁തനി	-11.1933
▁വിജയിച്ച	-11.1935
റിയില്ല	-11.1938
▁aalukal	-11.1939
avanmarud	-11.1943
olla	-11.1945
▁സ്വാസൂ	-11.1948
tticha	-11.1957
മെന്നു	-11.196
▁pattuoo	-11.196
▁00:	-11.196
▁odich	-11.1964
▁ponooo	-11.1964
ച്ചിയ	-11.1965
▁പൊളിച്ചേ	-11.197
inanu	-11.197
▁സുരാജിന്	-11.1972
▁വളി	-11.1976
ayolikal	-11.1977
േറ്റ്	-11.1986
rach	-11.1986
ngala	-11.1992
shtappettilla	-11.1993
േറെ	-11.1994
vannu	-11.1994
▁മുഖത്തു	-11.1996
yanallo	-11.1996
▁rajav	-11.2
ngeduthu	-11.2002
വന	-11.2002
ിക്കാം	-11.2007
che	-11.2008
▁അന്	-11.201
▁Aar	-11.2012
▁puliya	-11.2012
യായിരുന്നു	-11.2013
▁kanumenn	-11.2013
katha	-11.2014
▁od	-11.2018
കുത്തി	-11.2018
riller	-11.2019
NAN	-11.2019
▁നിക്ക്	-11.2019
:22	-11.203
▁Vala	-11.2032
▁edu	-11.2032
▁marich	-11.2036
▁nokiya	-11.2038
▁ഇട്ടിച്ചായനെ	-11.2039
quar	-11.2044
J	-11.2048
▁moh	-11.2049
aku	-11.2051
▁theat	-11.2051
▁kooti	-11.2051
▁അറ	-11.2054
ൗണ്ട	-11.2055
▁ethilla	-11.2056
▁aayaa	-11.2061
▁vineethettan	-11.2064
▁എങ്ങ	-11.2066
▁പറഞ്ഞേര	-11.2067
▁stun	-11.2078
ാത്തവർ	-11.2079
▁kaanunav	-11.2087
ന്നോള്	-11.2088
താണെന്ന്	-11.2088
nder	-11.2089
lees	-11.2089
▁ഷേ	-11.209
nthuva	-11.2092
▁thanneyan	-11.2094
നിന്നു	-11.2098
▁son	-11.2098
▁Shar	-11.2099
▁evid	-11.21
▁പഠിക്കു	-11.2102
oooooo	-11.2103
▁ജോലി	-11.2105
ppu	-11.2107
karan	-11.2112
zhu	-11.2112
య	-11.2113
ర్	-11.2115
▁christ	-11.2115
ൻറ്	-11.212
▁allel	-11.2122
▁ഭംഗിയ	-11.2122
Poi	-11.2125
ssss	-11.2126
ക്ഷം	-11.2127
▁മമ്മൂക്കയാണ	-11.2137
യാണല്ലോ	-11.2137
▁വർക്കി	-11.2138
hard	-11.2138
▁parayanam	-11.2138
pettu	-11.2139
▁ഷൈലോക്കിന	-11.2139
🤗🤗	-11.2144
IKA	-11.2144
▁muthan	-11.2147
athy	-11.2148
▁nilk	-11.2151
▁parag	-11.2152
eengala	-11.2158
▁പൊറ	-11.2158
ുതി	-11.216
athiri	-11.216
mpo	-11.216
ign	-11.2161
▁koduthath	-11.217
▁ഇന്	-11.2171
🧐🧐	-11.2174
▁Lalletta	-11.218
▁സിനിമകള	-11.218
thr	-11.2187
▁ഹിറ്റ	-11.2187
▁njangalkk	-11.2189
▁Be	-11.219
▁ഹരീന്ദ്ര	-11.2191
ittund	-11.2194
ism	-11.2195
navo	-11.2197
ടുക്കത്ത	-11.2202
▁ഗഡി	-11.2206
▁kanditte	-11.2209
▁ip	-11.2211
ima	-11.2211
▁ഭാഗത്ത	-11.2215
▁enthuva	-11.222
ayan	-11.2222
AB	-11.2225
▁bt	-11.2228
▁fil	-11.2229
ikko	-11.223
▁iniy	-11.223
▁അടിയ	-11.2233
െന്നെ	-11.2234
ൂട്ടി	-11.2235
etra	-11.2236
▁Enni	-11.2237
onnumalla	-11.2238
▁kaanunn	-11.2238
kanditu	-11.2238
▁ചേർ	-11.2246
▁ഇരിക്കുന്ന	-11.2247
ppi	-11.2247
▁vega	-11.225
aaaaaaaaaaaaaaaa	-11.225
▁Kiduuu	-11.2253
▁koodiya	-11.2257
kalile	-11.2257
▁Athe	-11.2261
▁ചാവ	-11.2261
▁Ariya	-11.2263
▁abhi	-11.2263
▁പതി	-11.2264
ുവാ	-11.2265
akam	-11.2268
▁kazhi	-11.2268
▁Can	-11.227
▁കൊള്ളാ	-11.2273
▁ഡെയ	-11.228
▁കഴിയുന്ന	-11.2282
▁ആണെന്	-11.2283
▁കാണുമ്പോഴാ	-11.2283
ങ്ങുന്നു	-11.2292
ody	-11.2292
nalo	-11.2294
▁parj	-11.2295
ിച്ചത്	-11.23
▁rakshay	-11.2304
ghal	-11.2304
▁enal	-11.2305
▁സഹിക്ക	-11.2305
▁ശത	-11.2306
മ്പൻ	-11.2309
▁Atho	-11.2312
▁mil	-11.2313
▁കാര്യത്തി	-11.2316
മോച	-11.2316
wa	-11.2322
ോഡ്	-11.2323
▁സിനിമയില	-11.2326
akulam	-11.2329
▁sl	-11.233
▁Rajuat	-11.2331
▁ജീവ	-11.2331
menkil	-11.2332
▁SU	-11.2333
yenn	-11.2335
ayillenkil	-11.2335
▁ക്ലാസ	-11.2338
uper	-11.2339
▁ida	-11.2341
ാതിരുന്നാ	-11.2342
രങ്ങള	-11.2344
▁ല്‍	-11.2345
▁nir	-11.2345
inger	-11.2346
▁റോക്ക	-11.2346
▁Para	-11.2351
▁മുയ	-11.2351
▁Lallettan	-11.2351
ind	-11.2356
▁Vida	-11.2359
▁ലേ	-11.2359
brothers	-11.2359
▁koott	-11.2361
▁bhe	-11.2362
larum	-11.2364
▁ഇഷ്ടപെട്ടവ	-11.2364
▁kidan	-11.2364
▁Rol	-11.2365
▁kaaa	-11.2369
harithra	-11.237
▁നയ	-11.2374
▁theerumaan	-11.2375
രാണ്	-11.2378
▁Releasin	-11.2378
▁ഇതേ	-11.2381
▁ചെയുന്നു	-11.2384
യ്ക്കു	-11.2392
▁Chev	-11.2395
േനെ	-11.2396
വേല	-11.2396
യാണ	-11.2398
▁chettane	-11.2398
sum	-11.2399
▁കളിയാക്ക	-11.2399
▁nadannavark	-11.24
▁kun	-11.2402
rnnu	-11.2406
▁അഞ്ച	-11.2406
▁rakshy	-11.2409
ങ്ങ്	-11.241
▁കൊടുത്താ	-11.2411
▁Real	-11.2414
dii	-11.2414
▁whats	-11.2422
കുമോ	-11.2422
▁aavu	-11.243
▁pwo	-11.2432
thille	-11.2432
ണ്ടായിട്ടില്ല	-11.2434
ിടി	-11.2435
▁intr	-11.2437
▁freezeril	-11.245
aryam	-11.2451
das	-11.2451
▁മൊതല	-11.2452
▁Aval	-11.2458
▁വെക്ക	-11.2459
▁മരക്കാ	-11.246
▁കാത്തിരിക്ക	-11.2461
owwww	-11.2463
▁Than	-11.2469
▁eppola	-11.2471
▁nammu	-11.2478
▁ummma	-11.2478
bavam	-11.2482
▁aggu	-11.2485
LR	-11.2485
▁നയൻതാര	-11.2486
▁Pazha	-11.2486
▁iragiya	-11.2487
▁ലോക	-11.2489
▁പറയുക	-11.2491
▁flopp	-11.2492
▁icha	-11.2493
▁kiduva	-11.2494
സർ	-11.2495
my	-11.2495
▁uda	-11.2495
▁Bengali	-11.2495
naa	-11.2496
▁മുഖത്ത	-11.2502
ivan	-11.2507
lakki	-11.2507
▁jaya	-11.2508
▁മെക്കു	-11.2508
▁keral	-11.2515
▁athaan	-11.2515
ാകട്ടെ	-11.2516
thoke	-11.2519
▁നിഗത്തിന	-11.252
achi	-11.252
▁കത്തിക്ക	-11.2523
നിക്ക്	-11.2524
ora	-11.2526
▁മുസ്ലിമായ	-11.2526
നായിട്ട	-11.2528
ടെയ്	-11.2528
rust	-11.2528
onne	-11.2531
▁ethiya	-11.2533
ല്ലൊ	-11.254
▁siree	-11.2546
aavatte	-11.2553
▁kanikkunna	-11.2556
yennittu	-11.2557
?🤔🤔	-11.2558
▁nikkunnavar	-11.2559
▁ju	-11.2559
uthiy	-11.256
▁hitum	-11.256
▁aakkum	-11.2565
▁vayich	-11.2567
▁laleta	-11.2568
kiduuu	-11.2568
▁adipik	-11.2569
▁iruk	-11.2569
ുബ	-11.257
മൂട്ടി	-11.2571
▁mammuk	-11.2572
▁vicharicha	-11.2572
▁bora	-11.2573
MAM	-11.2575
▁Mad	-11.2577
▁santa	-11.2577
▁abhinaya	-11.2578
▁ആനയ	-11.2578
▁kanikkun	-11.258
▁cheytat	-11.258
▁cheythath	-11.2581
▁ആണെന്ന	-11.2581
▁അവതരിപ്പി	-11.2581
ഡോ	-11.2582
▁Tovi	-11.2588
▁cheyyumo	-11.259
apol	-11.2591
▁tonniyat	-11.2592
▁shabda	-11.2592
ayude	-11.2595
▁idooo	-11.26
kuva	-11.2602
▁Jaya	-11.2606
രടി	-11.2608
YA	-11.2611
anunnavar	-11.2612
akkumo	-11.2616
▁കൊടുക്കു	-11.2618
▁thiri	-11.262
ozhi	-11.2621
▁kodhi	-11.2625
▁chaid	-11.2632
ikkanam	-11.264
ാട്	-11.264
▁Charit	-11.2642
heedha	-11.2643
RAK	-11.2643
▁മൊതലിന്	-11.2645
▁ആക്ക	-11.2646
▁return	-11.2647
▁soo	-11.2653
nodu	-11.2654
▁കുതിര	-11.2655
▁തീർക്കു	-11.2656
▁vellu	-11.2657
▁puli	-11.266
illaaa	-11.266
▁athuk	-11.2663
▁tharunna	-11.2667
▁iyalu	-11.2669
▁ഫഹദ	-11.2671
eru	-11.2674
▁kashta	-11.2674
kanum	-11.2675
▁parayane	-11.2682
▁മലയാളത്തിനു	-11.2683
▁gop	-11.2684
▁🤗🤗🤗🤗	-11.2689
▁Vineethettan	-11.2692
vark	-11.2692
▁വേണ്ടാ	-11.2693
rtainer	-11.2694
ananju	-11.2696
▁saa	-11.2696
nnathu	-11.2698
▁kanikku	-11.2701
▁swas	-11.2702
▁Loo	-11.2702
▁Mor	-11.2703
▁2:3	-11.2704
▁വിചാരിക്കുന്നത	-11.2705
▁urappullavarkk	-11.2705
amagam	-11.2711
oodum	-11.2717
▁kayyi	-11.2717
▁Ningalkk	-11.2718
ലൂടെ	-11.2718
▁keta	-11.2721
▁kam	-11.2722
▁കേക്ക	-11.2725
manassilayi	-11.2728
ny	-11.273
ndalloo	-11.2732
▁വാങ്ങി	-11.2732
honi	-11.2733
▁veer	-11.2736
karuthu	-11.2741
yad	-11.2741
21	-11.2741
▁Ithum	-11.2743
▁Z	-11.2747
ikida	-11.2747
poor	-11.2749
eel	-11.275
▁rajuetta	-11.2757
thiya	-11.2759
റ്റർ	-11.2759
▁Njangad	-11.2763
▁Ikk	-11.2765
▁Idi	-11.2766
zhi	-11.2773
athin	-11.2774
▁Endh	-11.2774
▁enda	-11.2774
▁kiduk	-11.2778
▁gh	-11.2778
ിക്കുമോ	-11.278
▁iss	-11.2783
ണ്ടൻ	-11.2785
▁luciferin	-11.2787
▁avathar	-11.2789
ixed	-11.2791
ിലാണ്	-11.2792
atten	-11.2792
USI	-11.2793
nday	-11.2795
▁Paray	-11.2795
നോടൊപ്പം	-11.28
▁Kash	-11.2807
ോം	-11.2807
unde	-11.2811
▁Yes	-11.2823
anunvr	-11.2827
▁Ss	-11.2827
▁ഉണ്ടാക	-11.2831
to	-11.2834
▁അവൾക്ക	-11.2834
▁namal	-11.2838
▁vilich	-11.2847
▁മനുഷ്യന	-11.2852
▁tudang	-11.2852
xy	-11.2856
▁aayittund	-11.2859
▁LALETTA	-11.2859
lude	-11.2859
enta	-11.2861
▁ullad	-11.2863
▁ആകാശ	-11.2866
▁Ittich	-11.2872
yath	-11.2878
ddy	-11.2878
lkk	-11.2879
marunnu	-11.288
▁ment	-11.2882
▁Mutha	-11.2884
▁kollun	-11.2885
▁irutt	-11.2887
shikunnu	-11.2889
nillalloo	-11.289
allu	-11.289
▁allann	-11.2894
▁mumbu	-11.2899
▁mole	-11.29
▁irikkun	-11.2904
rista	-11.2904
▁tonnu	-11.2905
▁mayr	-11.2906
▁OR	-11.2908
▁mathre	-11.291
▁kandtha	-11.2912
▁pwoliya	-11.2915
▁ayen	-11.2917
Ella	-11.2918
hn	-11.292
▁ite	-11.2921
TER	-11.2922
▁Sree	-11.2922
▁puthu	-11.2923
▁chay	-11.2924
▁ലാലിന്	-11.2927
േയുള്ളു	-11.2928
RI	-11.2929
endhu	-11.293
unathu	-11.2931
voo	-11.2932
▁nannayirik	-11.2936
▁angad	-11.2937
▁kumari	-11.2946
▁mukha	-11.2948
▁vari	-11.295
▁Muth	-11.2952
▁ele	-11.2953
േട്ട	-11.2954
▁polee	-11.2958
▁nadiy	-11.2959
ുള്ളവര	-11.296
▁penne	-11.2965
▁nadath	-11.2967
▁ചിരിയ	-11.2969
anenn	-11.297
▁ഇതല്ല	-11.2972
hari	-11.2972
NY	-11.2979
▁padan	-11.2981
▁ahno	-11.2984
▁പെണ്	-11.2987
vr	-11.2994
േസ്	-11.2996
▁വിളിക്കുന്ന	-11.2996
sar	-11.2997
▁കെ	-11.2999
▁degre	-11.3001
▁മിന്ന	-11.3001
▁athin	-11.3007
ppom	-11.3007
rry	-11.3009
▁lookil	-11.3011
▁teas	-11.3013
iyitund	-11.3015
▁adichitu	-11.3022
▁vaay	-11.3023
▁kaanath	-11.3023
▁ചതി	-11.3024
▁ഓര്	-11.3027
▁Mohanlalin	-11.3035
▁lalletta	-11.3037
▁varam	-11.3037
▁ponna	-11.3041
ൈൻ	-11.3045
▁ipozh	-11.3045
yde	-11.3046
▁makkalle	-11.3048
▁chyu	-11.3052
irun	-11.3058
▁kaanik	-11.3058
ന്നോ	-11.3059
puram	-11.306
▁thoonunn	-11.3064
utata	-11.3067
ശ്യം	-11.3067
HERE	-11.3067
▁poyo	-11.3071
llow	-11.3077
നല്ലേ	-11.3077
▁Pu	-11.3077
കൊണ്ട	-11.3079
▁pilla	-11.3081
live	-11.3084
▁പടമാ	-11.3087
kane	-11.3088
ding	-11.309
▁irangiyittu	-11.3091
ukh	-11.3094
▁erakk	-11.31
38	-11.3103
വര	-11.3104
YIR	-11.3109
▁Hang	-11.311
jaye	-11.3112
▁bang	-11.3112
THIN	-11.3117
ാള്‍	-11.3118
▁തീയ	-11.3118
▁ഡിസ	-11.3119
▁സമ്പാദിക്ക	-11.3122
▁vittath	-11.3127
poi	-11.3128
maxi	-11.313
▁kel	-11.3132
▁rajuvetan	-11.3133
▁podik	-11.3136
▁ലവ	-11.3139
▁കോമ	-11.314
▁Sup	-11.3144
▁നേർ	-11.3146
▁താരങ്ങ	-11.3149
inakath	-11.3155
▁Janapriya	-11.3155
avunnath	-11.3156
▁inganath	-11.3156
▁irangunn	-11.3157
nthaaa	-11.3158
▁potu	-11.3158
▁Andr	-11.316
▁പിടിക്ക	-11.3166
▁elle	-11.3167
▁siddi	-11.3167
▁400	-11.3172
yavum	-11.3172
▁വെക്കു	-11.3173
▁udheshich	-11.3175
ngiya	-11.3186
▁ark	-11.3189
teaser	-11.3189
▁adichath	-11.3189
liya	-11.319
▁സീനുകള	-11.319
athavar	-11.3191
▁pravas	-11.3195
▁വോയ	-11.3196
astic	-11.3201
▁mammu	-11.3201
rinju	-11.3202
▁സംശയ	-11.3205
nnathinu	-11.3208
▁manuva	-11.3209
abi	-11.3211
angum	-11.3211
പരീക്ഷകള	-11.3212
▁inganeya	-11.3214
ാക്ക്	-11.3214
▁വിജയിക്കാ	-11.3214
kilum	-11.3214
jayettan	-11.3215
mula	-11.3215
പെട്ട	-11.3216
▁ശ്രദ്ധിക്ക	-11.3217
▁ഓട	-11.3219
▁robotin	-11.3223
had	-11.3224
arilla	-11.3227
akalude	-11.3227
▁മമ്മൂട്ടിക്ക	-11.3229
▁അറബിക്കടലി	-11.3229
kathum	-11.3233
▁എന്തോന്ന	-11.3236
▁vannitt	-11.324
▁എന്നതിന്	-11.3241
▁akki	-11.3241
lm	-11.3241
▁ട്രൈലറ	-11.3245
▁asham	-11.3245
▁Fi	-11.3246
▁randa	-11.3247
ach	-11.325
▁lav	-11.325
▁viva	-11.3251
kunnund	-11.3253
▁pirann	-11.3254
▁ter	-11.3255
ന്നെ	-11.3255
anth	-11.3257
▁വേണമെങ്കി	-11.3261
▁kutty	-11.3263
▁disappoint	-11.3264
▁ikkkaaaa	-11.3267
▁ഡയലോഗുക	-11.3269
vekkath	-11.3269
▁NI	-11.3269
ന്മാർക്ക	-11.3275
pen	-11.3277
▁uuu	-11.3277
▁0.5	-11.3282
ov	-11.3285
▁nastam	-11.3288
▁kuda	-11.3289
epol	-11.3289
▁മധുര	-11.3294
▁രംഗ	-11.3294
▁Madhu	-11.3296
▁Karya	-11.3303
avarundo	-11.3303
▁kollath	-11.3305
▁Polichuu	-11.331
▁Moh	-11.331
irakkiyath	-11.331
▁thanee	-11.331
▁00:2	-11.3312
▁ജോഷിയ	-11.3317
▁അടിക്കാ	-11.3317
avathirunna	-11.3318
.30	-11.3318
▁pokku	-11.3319
▁ഓടിക്ക	-11.3319
▁ഉണ്ടായിട്ട	-11.3321
▁ബല	-11.3323
▁കൊള്ളി	-11.3323
▁ചെയ്യു	-11.3327
SHAN	-11.333
ിക്കേണ്ട	-11.333
വുന്നില്ല	-11.3333
▁Entho	-11.3334
ാവട്ടെ	-11.3334
tandard	-11.3339
▁sant	-11.3346
ayo	-11.3354
ngu	-11.3354
ahaa	-11.3358
▁കളിക്കാ	-11.3362
ിക്കൊപ്പം	-11.3363
ys	-11.3365
▁VI	-11.3374
▁adikkumenn	-11.3379
ഞ്ഞാൽ	-11.3379
daku	-11.3382
▁vilikk	-11.3383
▁baaa	-11.3385
ുഖ	-11.3385
▁myru	-11.3387
Am	-11.3388
▁Cut	-11.339
▁kall	-11.3397
eed	-11.3399
▁മനസിലാ	-11.3401
uvo	-11.3402
▁പോത്തേട്ട	-11.3405
avumenn	-11.341
▁kazhiyum	-11.341
▁sc	-11.3412
▁മമ്മ	-11.3416
▁ഇഷ്ടായ	-11.3417
kara	-11.3418
▁ana	-11.342
▁sneh	-11.3421
▁aniya	-11.3421
▁muthee	-11.3423
▁ചാനലിന്	-11.3424
▁JA	-11.3426
▁ലൂസിഫറി	-11.3435
തരം	-11.3435
▁Waitn	-11.3436
▁tim	-11.3439
habi	-11.344
ടക്ക	-11.3441
▁aagrahikkunn	-11.3442
ായത്	-11.3443
▁namb	-11.3451
▁shad	-11.3451
▁ketapo	-11.3453
NADA	-11.3455
▁പുരുഷ	-11.3455
▁gaand	-11.3456
vey	-11.3456
▁പന്ന	-11.3458
▁പിള	-11.346
വില്ല	-11.3461
▁thi	-11.3463
▁kothip	-11.3463
▁vey	-11.3475
▁-2	-11.3476
ക്കൊ	-11.3479
നോട	-11.3479
▁nikkun	-11.3479
▁mamank	-11.3479
▁PONN	-11.3482
undallo	-11.3484
മൂ	-11.3487
▁virodh	-11.3488
▁Veruth	-11.3489
▁keeee	-11.3493
mammoka	-11.3494
▁vendiii	-11.3496
ibe	-11.3496
▁കുട്ടികള	-11.3499
▁മഹ	-11.3499
enem	-11.3502
നില	-11.3504
ghes	-11.3506
▁അല്ലാത	-11.3506
ttunilalo	-11.3507
414	-11.3507
▁കുഞ്ഞാലിമരക്കാ	-11.3508
gon	-11.3508
uck	-11.3509
▁Mach	-11.351
തൽ	-11.3512
rude	-11.3514
ാറൂ	-11.3516
mammooka	-11.3517
ahiravanan	-11.3518
uvan	-11.3519
vumayi	-11.352
▁tamilan	-11.3521
േക്കു	-11.3526
ayayi	-11.3534
ല്ലിയ	-11.3535
▁Evd	-11.3536
▁ഓണത്തിന	-11.3536
aanalloo	-11.3539
▁polikun	-11.3543
▁ടീമ	-11.3544
HRIS	-11.3545
▁ക്ലാസ്	-11.3547
പിടി	-11.3547
shichu	-11.3548
tiya	-11.3548
makal	-11.3549
ിപ്	-11.355
▁മലയാളസിനിമയ	-11.355
oooper	-11.3551
ഏട്ടൻ	-11.3552
kkol	-11.3552
▁സംഭവ	-11.3555
▁ketta	-11.3557
▁chec	-11.3557
▁nannavu	-11.356
theerun	-11.3562
▁kerum	-11.3562
ഫൈ	-11.3563
ries	-11.3564
chettan	-11.3569
▁pravishy	-11.357
ട്ടു	-11.3574
athram	-11.3575
aadai	-11.3576
▁bu	-11.3578
▁Paul	-11.3579
rayam	-11.358
▁allae	-11.358
ഡേ	-11.3583
മാത്രം	-11.3586
▁ആയെ	-11.3588
അടി	-11.359
ako	-11.3591
ച്ചേ	-11.3594
VEL	-11.3594
pilla	-11.3594
▁manni	-11.3595
alan	-11.3596
▁aagan	-11.3597
▁പറയുന്നതു	-11.3597
▁loka	-11.3599
▁pade	-11.36
layum	-11.3601
ഹീ	-11.3601
▁scenil	-11.3604
veendum	-11.3606
▁Kasht	-11.3607
saudi	-11.3616
▁lok	-11.3617
മഞ്ജുചേച്ചി	-11.3619
ത്തിലുള്ള	-11.3619
കോം	-11.3621
▁kollaame	-11.3624
▁vay	-11.3627
▁yaman	-11.3627
▁valu	-11.3631
for	-11.3632
▁vishwasa	-11.3633
▁mansila	-11.3633
▁pattil	-11.3633
അതു	-11.3635
▁kaanaa	-11.3635
▁bob	-11.3637
▁ഹിന്ദ	-11.3639
▁adhehathin	-11.364
മക്കളെ	-11.3641
Prithviraj	-11.3641
▁illathe	-11.3642
▁engan	-11.3643
ഇജ്ജാതി	-11.3643
cho	-11.3643
Teaser	-11.3643
എന്ത്	-11.3643
▁OK	-11.3646
Pottum	-11.3647
ayipoyi	-11.3648
angamali	-11.3648
suraj	-11.365
Poli	-11.365
▁Bt	-11.3654
BGM	-11.3655
pich	-11.3657
njanga	-11.3657
▁Manu	-11.3657
krishna	-11.3657
ഞങ്ങൾ	-11.3659
marana	-11.3659
▁ചട്ട	-11.366
dileep	-11.366
ഭദ്ര	-11.366
mammokka	-11.366
▁irangunna	-11.3663
▁kittun	-11.3663
ആദ്യ	-11.3663
direction	-11.3664
LIKE	-11.3664
ETTAN	-11.3664
പറയാൻ	-11.3664
ഷൈലോക്ക്	-11.3664
aarkengil	-11.3665
trending	-11.3666
eriyum	-11.3666
But	-11.3666
nikunne	-11.3666
ദീ	-11.3667
Nivin	-11.3667
gambeeram	-11.3667
لا	-11.3668
mammootty	-11.3668
BG	-11.3668
time	-11.3668
kurachu	-11.367
▁ithilu	-11.3671
RAJ	-11.3672
ajinikanth	-11.3672
first	-11.3672
െക്കൊണ്ട	-11.3673
ഇത്ര	-11.3674
thank	-11.3675
kh	-11.3675
▁ഇല്ലാത	-11.3676
Rajuvettan	-11.3676
Ikkaaaaa	-11.3677
▁ippoz	-11.3677
nivin	-11.3678
നായകൻ	-11.3678
MEGASTAR	-11.3678
Cinima	-11.3678
▁ഇച്ചാ	-11.3678
▁ചാൻസ	-11.3679
ഓരോ	-11.3679
making	-11.3679
midhun	-11.3679
kolakolli	-11.3679
angalam	-11.3679
▁maatra	-11.368
🤫	-11.368
shammi	-11.368
▁kamma	-11.3681
ഉ	-11.3681
romanjification	-11.3682
Mega	-11.3682
joshiy	-11.3682
Release	-11.3683
Please	-11.3683
BOSS	-11.3684
Pokkiri	-11.3684
ക്കര	-11.3684
BEST	-11.3684
Raju	-11.3684
ejjathi	-11.3684
evideyo	-11.3685
കുരു	-11.3686
een	-11.3686
▁Jel	-11.3686
▁NAM	-11.3687
kaanumbol	-11.3688
മൂത്ത	-11.3689
Ikkayude	-11.369
▁ലാ	-11.369
▁kaz	-11.3691
kittiya	-11.3693
▁viyar	-11.3694
▁എടു	-11.3694
▁ചെയ്തിട്ട	-11.3694
*#	-11.3695
scenes	-11.3696
Brother	-11.3696
For	-11.3698
▁6.3	-11.3698
thoru	-11.3698
amban	-11.3698
thrill	-11.37
▁maat	-11.3701
▁കാട്ടി	-11.3701
▁irikan	-11.3701
ദേവ	-11.3702
ethe	-11.3702
▁ഏക	-11.3703
ottam	-11.3704
▁Ufffff	-11.3704
njathu	-11.3706
entammo	-11.3707
sec	-11.3707
wood	-11.3708
▁oll	-11.3709
...#	-11.3709
▁Mammukk	-11.3709
▁ആരാധകന	-11.371
▁similar	-11.3711
▁നോക്കണ	-11.3714
Aaa	-11.3714
▁samsayam	-11.3715
ENT	-11.3716
▁പന്	-11.3719
▁Il	-11.3719
athuku	-11.3721
മലയാളം	-11.3722
പോയ	-11.3722
ix	-11.3724
▁ash	-11.3725
ക്കാനാ	-11.3726
▁Ivd	-11.3726
karya	-11.3727
paramb	-11.3728
KI	-11.3728
▁kazinj	-11.3729
▁കൂടിയ	-11.3729
▁അഭ	-11.3729
▁ഒന്നുകൂട	-11.373
uve	-11.373
dark	-11.3733
off	-11.3733
▁കിട്ടു	-11.3734
▁nammuk	-11.3735
orkku	-11.3735
teri	-11.3737
devil	-11.3738
▁കറ	-11.3739
▁aneng	-11.3741
▁vaaa	-11.3746
cking	-11.3747
kadha	-11.3747
▁കിടില	-11.3748
still	-11.3748
▁noke	-11.3748
▁kalikku	-11.3749
mega	-11.3751
മാരും	-11.3751
▁vekk	-11.3753
iran	-11.3755
nje	-11.3756
koz	-11.3757
▁erangiya	-11.3758
yeeeeeee	-11.3758
വിത	-11.376
▁onm	-11.3761
kuvan	-11.3761
▁kaanunnu	-11.3761
aavanam	-11.3762
▁kaaniku	-11.3764
chechii	-11.3764
▁മുട്ട	-11.3765
▁എനി	-11.3766
boss	-11.3767
retheekshichilla	-11.3769
▁allenki	-11.3771
▁athent	-11.3771
▁aayathu	-11.3773
ആർ	-11.3776
▁evidey	-11.3781
avante	-11.3782
▁ഇട്ടേ	-11.3786
uvarum	-11.3789
ivasam	-11.3789
ചരിത്രമ	-11.379
kyu	-11.3791
look	-11.3791
mance	-11.3791
nny	-11.3791
annittund	-11.3796
▁ഓക്ക	-11.3797
verunnu	-11.3798
▁പലര	-11.3799
▁Paraya	-11.3799
▁ool	-11.3801
വട്ട	-11.3801
▁Master	-11.3801
lalettante	-11.3804
▁സത്യാ	-11.3807
▁ആയിരുന്ന	-11.3809
▁2:0	-11.3812
▁venamenn	-11.3813
▁ntho	-11.3814
▁തിരുത്ത	-11.3815
kollam	-11.3815
▁സെക്	-11.3816
▁adut	-11.3817
audi	-11.3817
▁തൊട്ടു	-11.3818
▁adikkana	-11.3818
thavana	-11.3819
akkamo	-11.3819
▁കണ്ടേ	-11.3821
▁pratheesh	-11.3822
▁avn	-11.3823
▁സാന്റ	-11.3823
▁Uffff	-11.3823
▁Soubi	-11.3825
pooy	-11.3825
▁Ista	-11.3825
▁webs	-11.3826
▁aakkiya	-11.3827
karu	-11.3828
▁കാലഘട്ടത്ത	-11.3829
FO	-11.383
▁varunund	-11.3831
ാമ്പത	-11.3832
▁kani	-11.3832
▁koodun	-11.3835
nunnundo	-11.3837
▁undoooo	-11.3838
athirikkan	-11.3839
▁erangunn	-11.3839
ശാ	-11.3839
ങ്ങൾക്ക്	-11.384
▁അടിക്കണ	-11.3841
▁പെരു	-11.3844
▁eppolu	-11.3846
▁shyloc	-11.3849
...??	-11.3852
dakku	-11.3854
▁parayaa	-11.3854
▁Siddiq	-11.3855
▁MO	-11.3856
▁nallla	-11.3857
▁poor	-11.3857
▁cheyyo	-11.3858
▁kshama	-11.386
oppan	-11.386
റിയാ	-11.3866
▁പൃഥ്വിരാജ	-11.3866
▁Katt	-11.3867
▁ikkay	-11.3867
▁andha	-11.3868
athullu	-11.3869
കഥ	-11.3872
▁ആയിട്ടു	-11.3873
cle	-11.3877
▁produce	-11.3879
▁minut	-11.3881
▁Clas	-11.3882
akiyadh	-11.3882
▁undaayi	-11.3884
▁വിഷ	-11.3884
▁ammoo	-11.3885
olich	-11.3885
▁Nin	-11.3886
▁യോ	-11.3886
dding	-11.3887
▁kora	-11.3887
▁thiru	-11.3888
▁thirich	-11.3889
hiye	-11.389
▁nokkunna	-11.3891
▁Ninga	-11.3893
▁മനസ	-11.3894
▁Rajani	-11.3894
▁നിലവാര	-11.3895
▁ധൈര്യ	-11.3897
ുമ്പോഴേ	-11.3897
▁ഗംഭീര	-11.3898
▁അഹങ്കാര	-11.39
ristianikalk	-11.39
jan	-11.3901
നിക്കു	-11.3902
ദേശ	-11.3903
▁അങ്	-11.3903
▁വേഗ	-11.3904
▁wh	-11.3904
▁വിവര	-11.3904
EE	-11.3905
▁മകന	-11.3909
▁ezhu	-11.3909
▁അവതാര	-11.3909
KET	-11.391
▁vannit	-11.391
▁ഇതൊക്ക	-11.3911
▁അങ്ങോട്ട	-11.3911
owli	-11.3912
ഭി	-11.3913
▁കളിക്ക	-11.3913
▁സ്റ്റാ	-11.3914
▁പ്രതികരിക്ക	-11.3915
▁വെറുപ്പിക	-11.3916
even	-11.3916
▁പ്രത്യേക	-11.3917
▁endu	-11.3918
▁frame	-11.392
▁frnds	-11.392
▁മുഴ	-11.3921
▁chuva	-11.3921
▁Itti	-11.3922
▁എഴുതി	-11.3922
വട്ടെ	-11.3924
▁subtitle	-11.3924
ward	-11.3925
▁ടൈറ്റി	-11.3925
▁കർത്താവ	-11.3925
▁abhipra	-11.3925
▁ജയ	-11.3927
▁word	-11.3927
cenes	-11.3927
ങ്ങനെയാ	-11.3927
പൃഥി	-11.3928
▁ബിഗ്ബ്രദ	-11.3929
▁Prithivi	-11.393
ദ്ദേഹ	-11.393
▁ക്ള	-11.3931
▁വയസ	-11.3931
▁manassi	-11.3932
christ	-11.3932
55	-11.3932
nitt	-11.3933
▁ചോദിക്കുവ	-11.3933
മടങ്ങി	-11.3934
▁പ്രൊഡ	-11.3935
യിലെത്ത	-11.3935
▁thammila	-11.3935
▁Pwolii	-11.3935
▁അയ്യ	-11.3935
▁പുറപ്പാട	-11.3935
▁ulup	-11.3936
മുക	-11.3936
▁warri	-11.3936
റിംഗ്	-11.3937
▁എഡിറ്	-11.3937
▁അറിയാവുന്ന	-11.3937
▁അപേക്ഷ	-11.3938
rkenk	-11.3938
▁pollich	-11.3939
್	-11.3939
▁rajni	-11.3939
ുങ്ങിയ	-11.394
ഥിക്കുന്നു	-11.394
▁വല്യ	-11.394
ల	-11.394
▁art	-11.394
ر	-11.394
▁ദൃ	-11.394
▁പൃഥ്വി	-11.394
ه	-11.394
▁ഇൻഡസ്ട	-11.394
ಅ	-11.394
ವ	-11.394
ప	-11.394
▁Asooya	-11.394
ி	-11.394
▁Karayippi	-11.394
▁പുകഴ്ത്ത	-11.394
▁ഫേസ്ബുക്	-11.394
▁സമീപ	-11.394
ಡಿ	-11.394
ഔ	-11.394
▁garjan	-11.394
▁graph	-11.394
▁hospital	-11.394
▁ishwara	-11.394
▁ఎ	-11.394
▁അനുഗ്രഹ	-11.394
▁പരകായ	-11.394
▁🥀	-11.394
::::	-11.394
ASHAMSAKALUM	-11.394
ITTUNDE	-11.394
goosebumps	-11.394
sajeev	-11.394
Â	-11.394
È	-11.394
أ	-11.394
س	-11.394
ف	-11.394
०	-11.394
ன	-11.394
ள	-11.394
గ	-11.394
ట	-11.394
డ	-11.394
ో	-11.394
ರ	-11.394
ಹ	-11.394
ೋ	-11.394
ക്രിസ്ത്യ	-11.394
പോക്കിരിരാജ	-11.394
ഭ്യർത്ഥിക്കുന്നു	-11.394
€	-11.394
▁Dhileepettan	-11.394
▁Dulquer	-11.394
▁FILM	-11.394
▁Friendship	-11.394
▁IRIKKA	-11.394
▁KUTHIRA	-11.394
▁LEGEND	-11.394
▁MANAKKUNN	-11.394
▁Netflix	-11.394
▁PWOLLICHU	-11.394
▁Rajeev	-11.394
▁Santhathikal	-11.394
▁Second	-11.394
▁Sugunan	-11.394
▁THRILLER	-11.394
▁VIDAMATEN	-11.394
▁Vysakh	-11.394
▁avatharippikunn	-11.394
▁charactor	-11.394
▁ebilees	-11.394
▁ipravish	-11.394
▁launch	-11.394
▁muvattupuzha	-11.394
▁natukar	-11.394
▁obreoi	-11.394
▁padmakumar	-11.394
▁sadirshyam	-11.394
▁simhathin	-11.394
▁soochana	-11.394
▁subscibe	-11.394
▁surpris	-11.394
▁tomorrow	-11.394
▁transformation	-11.394
▁yesterday	-11.394
▁ആത്മവിശ്വാസ	-11.394
▁ആനന്ദം	-11.394
▁ആലപ്പുഴ	-11.394
▁ഇയാളിതെന്തോന്ന	-11.394
▁ഉപേക്ഷിച്ച	-11.394
▁ഉസ്താദ	-11.394
▁ഉസ്മാനേ	-11.394
▁ഉൽപ്പന്ന	-11.394
▁ഒരിടവേള	-11.394
▁കണ്ടറിയണം	-11.394
▁കലാകാരന്മാർ	-11.394
▁ട്വിസ്റ്റ	-11.394
▁ഡയരക്ടർ	-11.394
▁ഡൌട്ട്	-11.394
▁തകർക്കുവല്ലേ	-11.394
▁നാച്ചുറൽ	-11.394
▁നീരാളിയ	-11.394
▁പിന്നെന്തിനാ	-11.394
▁പുത്ത൯പണ	-11.394
▁പുന്നാര	-11.394
▁പെരുമ്പാവൂ	-11.394
▁പ്രഹസനം	-11.394
▁മെയ്ഡ്	-11.394
▁രോമാഞ്ചിഫികേഷൻ	-11.394
▁വീരഗാഥ	-11.394
▁വ്ലോഗ്	-11.394
▁🤝🤝🤝🤝	-11.394
▁🤡	-11.394
🤥	-11.394
🥇	-11.394
definit	-11.394
ഛായ	-11.394
പൂശിയ	-11.394
▁MOHANDAS	-11.394
▁Maoist	-11.394
▁PORINJU	-11.394
▁VIDEO	-11.394
▁mistake	-11.394
▁nostalgia	-11.394
▁required	-11.394
▁roodhanam	-11.394
▁selfi	-11.394
▁അപമാനി	-11.394
▁ഇന്ദ്ര	-11.394
▁കിടുകാച്ചി	-11.394
▁നിമിഷം	-11.394
▁നൂല്	-11.394
▁പടച്ചോനേ	-11.394
▁പ്രവാസി	-11.394
▁സല്യൂട്ട്	-11.394
▁Ittycha	-11.394
▁ODIYAN	-11.394
▁purush	-11.394
▁teerumanam	-11.394
▁vnnvr	-11.394
▁ആമിനതാത്ത	-11.394
▁കൂട്ടായ്മ	-11.394
▁തന്മയത്	-11.394
▁പഞ്ഞിക്കിട	-11.394
▁ബഡ്ജ	-11.394
▁മാബഴ	-11.394
▁pahayanmare	-11.394
▁sequen	-11.394
▁shikandi	-11.394
▁ലുലു	-11.394
▁സ്കോർ	-11.394
▁സ്ട്രോങ്ങ	-11.394
▁KONDUPO	-11.394
▁Ratsasan	-11.394
▁chakravar	-11.394
▁ezhunnett	-11.394
▁kumbalag	-11.394
▁vyathastha	-11.394
▁കാളിദാസ	-11.394
▁ചെറുതായി	-11.394
▁ദുബായ്	-11.394
▁ബംഗാളി	-11.394
▁വാസു	-11.394
violence	-11.394
പ്രാധാന്യ	-11.394
▁CHEYY	-11.394
▁Durantha	-11.394
▁Muslim	-11.394
▁indhrajith	-11.394
▁കൈരളി	-11.394
CHANGER	-11.394
▁pritiraj	-11.394
▁sudappi	-11.394
▁പ്രഖ്യാപി	-11.394
▁മാധവ	-11.394
▁കിണറ്റി	-11.394
▁സ്റ്റാറ്റസ	-11.394
TAMIL	-11.394
▁PSY	-11.394
▁vyshak	-11.394
▁അത്ഭു	-11.394
▁ആണുങ്ങളെ	-11.394
▁സ്ഥലങ്ങള	-11.394
▁Muriv	-11.394
▁മെക്കാനിക്ക	-11.394
Lakh	-11.394
Ń	-11.394
ക്കുറിച്ച	-11.394
▁അനുകരിക്ക	-11.394
▁ധര	-11.394
▁THALA	-11.394
▁മനസുമാണ്	-11.394
▁യാതൊരു	-11.394
▁പരുന്ത	-11.394
▁dialouge	-11.394
▁ഉശിര	-11.394
▁ishtappedunna	-11.394
▁സൂര്യ	-11.394
ನ್	-11.394
▁mommukkaaa	-11.394
▁muyuvan	-11.394
▁ushir	-11.394
▁കഞ്ചാവ	-11.394
▁വൃത്തി	-11.394
ഗൃഹ	-11.394
▁Prthvi	-11.394
▁treding	-11.394
▁ബന്ധ	-11.394
ക്കുറവ്	-11.394
▁jacket	-11.394
▁ഉറപ്പിക്കാം	-11.394
▁Build	-11.394
▁sradhikku	-11.394
▁ഒരുപാടിഷ്ട	-11.394
▁panchayath	-11.394
ాల	-11.394
▁manohara	-11.394
▁talent	-11.394
▁thamizh	-11.394
▁എഫക്ട്	-11.394
▁മധുരരാജ	-11.394
▁കാണിച്ചുതരു	-11.394
▁nilanilk	-11.394
▁Twi	-11.394
▁nimisha	-11.394
▁ആക്ടിങ്	-11.394
▁ഇട്ടോളി	-11.394
▁വെടികെട്ട	-11.394
▁ചത്തൂടെ	-11.394
▁cinematography	-11.394
▁niraasha	-11.394
▁الا	-11.394
▁അടിക്കുന്നവരോട്	-11.394
lppikkan	-11.3941
▁chitram	-11.3941
▁hindust	-11.3941
▁തോൽവി	-11.3941
▁Location	-11.3941
▁pwlikm	-11.3941
▁മോഹന്‍ലാല്‍	-11.3941
NESS	-11.3941
▁celeb	-11.3941
🤐🤐	-11.3941
▁vinayakan	-11.3941
▁റാവു	-11.3941
▁anybody	-11.3941
▁സഹിക്കുന്നില്ല	-11.3941
🤓🤓	-11.3941
▁sweekari	-11.3941
▁LALET	-11.3941
pichond	-11.3941
▁irangunnadin	-11.3941
▁കരുത്തു	-11.3941
കളിലൂടെ	-11.3941
▁High	-11.3941
▁drctr	-11.3941
▁rahman	-11.3941
▁കറുപ്പ	-11.3941
▁ലോകസിനിമ	-11.3941
▁pathiv	-11.3941
▁mohandas	-11.3941
▁ahagaram	-11.3941
▁irikkunnath	-11.3941
▁kurishingal	-11.3941
▁egeru	-11.3941
▁marakkalle	-11.3941
▁prashna	-11.3941
▁ഇറങ്ങേണ്ട	-11.3941
▁urappikkam	-11.3941
▁മടുത്ത	-11.3941
▁വല്യേട്ടൻ	-11.3941
▁poojap	-11.3941
▁prithivi	-11.3941
▁ബോഡി	-11.3941
▁alert	-11.3941
▁phys	-11.3941
▁കഴിയട്ടെ	-11.3941
▁waitingggggg	-11.3941
▁cheyyendath	-11.3941
▁lalaettan	-11.3941
▁promotion	-11.3941
▁john	-11.3941
ിക്കിടു	-11.3941
▁hanuman	-11.3941
▁nashippi	-11.3941
▁Bhag	-11.3941
▁vaanangal	-11.3941
▁പാച	-11.3941
▁പണത്തിന്റെ	-11.3941
▁aayirukk	-11.3941
അഭിമാനിക്കാവുന്ന	-11.3941
▁Thiruna	-11.3941
▁templates	-11.3941
▁gusad	-11.3941
balli	-11.3941
▁erakkiya	-11.3941
ജന്	-11.3941
▁എന്നെപ്പോലെ	-11.3941
▁കടന്നുവ	-11.3941
▁pooshiya	-11.3941
▁നേർക്കുനേ	-11.3941
▁വാക്കുകൾ	-11.3942
▁history	-11.3942
▁വിഷ്വ	-11.3942
▁poagu	-11.3942
▁ജാട	-11.3942
▁vekkumbol	-11.3942
▁കാണാതായ	-11.3942
▁shree	-11.3942
▁speak	-11.3942
▁Anusithara	-11.3942
▁ആർകെങ്കിലും	-11.3942
▁media	-11.3942
▁tamilnattil	-11.3942
▁ഫാൻസുകാർ	-11.3942
▁കമന്റിടാ	-11.3942
▁Srilanka	-11.3942
▁Mommookka	-11.3942
▁തരാമോ	-11.3942
▁കരഞ്ഞ	-11.3942
വതാരം	-11.3942
▁വെയ്ക്കാ	-11.3942
▁അപേക്ഷയാണ്	-11.3942
ചെയ്ത	-11.3942
▁ഗാൺ	-11.3942
▁Hambo	-11.3942
▁കരുതുന്നു	-11.3942
▁ഇഷ്ട്ടമാണ്	-11.3942
▁George	-11.3942
▁Drama	-11.3942
▁Number	-11.3942
▁Salimettan	-11.3942
▁cheruthay	-11.3942
▁വഹിച്ച	-11.3942
▁ഉൾ	-11.3942
▁Pokkiriraja	-11.3942
▁kalpich	-11.3942
▁ജനിക്കേണ്ട	-11.3942
▁butten	-11.3942
പ്ലീ	-11.3942
▁ജോപ്പൻ	-11.3942
▁kalanjallo	-11.3942
▁wtng	-11.3942
▁ivede	-11.3942
▁kuwait	-11.3942
▁പ്രവർത്തകർക്ക	-11.3943
▁Telangana	-11.3943
▁നാദം	-11.3943
ന്നിയവർ	-11.3943
▁ഫാസിലിന	-11.3943
▁chutti	-11.3943
▁ഡ്യൂപ്പ	-11.3943
▁വന്തിട	-11.3943
ൂസർ	-11.3943
▁റീലിസ	-11.3943
efore	-11.3943
▁GEET	-11.3943
▁SET	-11.3943
▁polichadakki	-11.3943
▁ദുരന്തങ്ങൾ	-11.3943
▁തീരുമാനമായി	-11.3943
▁SOON	-11.3943
▁ജോജുവേട്ടൻ	-11.3943
▁budd	-11.3943
▁കൊണ്ടുപോയി	-11.3943
/12	-11.3943
▁bramanda	-11.3943
▁mathiyaayirunnu	-11.3943
▁സമ്മതിച്ചു	-11.3943
▁Cheytha	-11.3943
▁keerthi	-11.3943
▁പ്രശ	-11.3943
▁നായികമാർ	-11.3943
▁veezhum	-11.3943
▁karuthunnavar	-11.3943
▁grand	-11.3944
▁അഭിനയിക്കുക	-11.3944
▁sitara	-11.3944
usiness	-11.3944
▁കിടിലോസ്	-11.3944
▁ധർമ	-11.3944
▁ചർച്ച	-11.3944
▁പഹയ	-11.3944
▁policekaar	-11.3944
▁ഇട്ടിട്ടുണ്ട്	-11.3944
▁paripadi	-11.3944
▁പഠിപ്പിച്ചത	-11.3944
▁പരിധി	-11.3944
▁പതിന	-11.3944
▁nedumpally	-11.3944
▁എങ്ങനാ	-11.3944
▁ഷാൻഷ	-11.3944
▁സഹനട	-11.3944
▁വൈകി	-11.3944
▁Other	-11.3944
▁ചുവ	-11.3944
▁തേപ്പ	-11.3944
▁സാധാ	-11.3944
ngatt	-11.3944
dweep	-11.3944
nnillla	-11.3944
▁presnam	-11.3944
▁ഉണ്ടാക്കുന്നു	-11.3944
▁ആവുമോ	-11.3944
ിപ്പിക്കരുത്	-11.3944
▁184	-11.3945
ulous	-11.3945
ുകാർ	-11.3945
▁kannadiga	-11.3945
▁enough	-11.3945
▁റൺ	-11.3945
ough	-11.3945
▁snehikkunnavar	-11.3945
▁അതിനേക്ക	-11.3945
▁anagan	-11.3945
▁person	-11.3945
▁ചന്ദ്ര	-11.3945
▁valaratte	-11.3945
▁തമിഴ്നാട്ടില	-11.3945
▁ഇന്ത്യയിലെ	-11.3945
▁ഡ്ര	-11.3945
▁ചിരിപ്പിച്ചു	-11.3945
▁pandaram	-11.3945
▁കുടിച്ചു	-11.3945
▁ഇജ്ജ	-11.3945
▁niraasa	-11.3946
▁ആകരുത്	-11.3946
▁THEERN	-11.3946
▁seems	-11.3946
▁thudangiii	-11.3946
▁പോകല്ലേ	-11.3946
▁പോകുവാ	-11.3946
▁0:33	-11.3946
യ്സ്	-11.3946
▁political	-11.3946
endaay	-11.3946
▁പലിശക്കാരൻ	-11.3946
rahul	-11.3946
▁Triller	-11.3946
▁Vinod	-11.3946
▁മുട്ടി	-11.3946
▁Give	-11.3946
▁vannitundenn	-11.3946
▁Athrayk	-11.3946
▁Night	-11.3946
▁ശോകമാ	-11.3946
▁1:36	-11.3946
17	-11.3946
▁നീട്ടി	-11.3946
▁Head	-11.3947
▁കിട്ടുന്നില്ല	-11.3947
▁കാണാറു	-11.3947
▁NIGH	-11.3947
▁aaradh	-11.3947
▁തമ്പി	-11.3947
്മത	-11.3947
▁theerkkan	-11.3947
ZH	-11.3947
▁veruppikkal	-11.3947
▁kittunnilla	-11.3947
▁Sugam	-11.3947
▁എന്തൊന്ന	-11.3947
▁varunila	-11.3947
▁ambho	-11.3947
▁ട്രയൽ	-11.3947
▁ഉയിരാണ്	-11.3947
▁ഇറക്കിയത്	-11.3947
▁അടുക്കി	-11.3947
▁black	-11.3947
▁cmt	-11.3947
▁ലൈക്കടിച്ചേ	-11.3947
▁____	-11.3948
▁keriyavar	-11.3948
▁bellar	-11.3948
ിക്ഷിച്ചില്ല	-11.3948
▁ഖു	-11.3948
▁pradeekshichu	-11.3948
ottiri	-11.3948
▁ചെയ്യാത്തത്	-11.3948
▁manj	-11.3948
▁എന്തോന്നെട	-11.3948
GAME	-11.3948
▁ആണെടാ	-11.3948
▁ഭൂ	-11.3949
▁veyya	-11.3949
▁notice	-11.3949
▁Entire	-11.3949
▁നടന്‍	-11.3949
▁ഈയടുത്ത	-11.3949
▁teeran	-11.3949
▁kiii	-11.3949
▁sundhar	-11.3949
▁മാസ്സില്ല	-11.3949
▁പറയട്ടെ	-11.3949
▁Pokiriraja	-11.3949
▁വേഷവും	-11.3949
▁maaten	-11.3949
▁ഓടിക്കോ	-11.3949
EDY	-11.395
mavanuga	-11.395
കെല	-11.395
▁cinemey	-11.395
zzz	-11.395
unath	-11.395
▁mathiyavunnill	-11.395
▁blog	-11.395
▁കമോൻ	-11.3951
▁ആണലോ	-11.3951
▁Khalid	-11.3951
അറിഞ്ഞിരിക്കേണ്ട	-11.3951
▁Vidya	-11.3951
▁jac	-11.3951
▁മാന്യ	-11.3951
▁1:11	-11.3951
▁ബിഗ്ബ്രദർ	-11.3951
▁ചെയ്തൂടെ	-11.3951
▁തുടരും	-11.3951
▁thonnunnundo	-11.3951
▁ഉറപ്പിച്ചോ	-11.3951
▁aashamsakal	-11.3951
▁ishttapett	-11.3951
rajith	-11.3951
▁muthalali	-11.3951
mmmmaaaa	-11.3951
▁Sreenivasan	-11.3951
▁lahari	-11.3951
▁ഡേയ്	-11.3951
▁thagarkum	-11.3951
▁കണ്ടില്ലല്ലോ	-11.3951
▁കൊലച്ചിരി	-11.3952
ethin	-11.3952
▁ആയിക്കോ	-11.3952
▁podunga	-11.3952
▁അടുക്കും	-11.3952
▁Thaneer	-11.3952
▁മാറ്റാം	-11.3952
▁vannille	-11.3952
▁thonunnathu	-11.3952
▁ബഹുമാന	-11.3952
പ്പിയ്ക്കുന്ന	-11.3953
▁പ്രതീക്ഷകളും	-11.3953
INA	-11.3953
▁മച്ചാൻസ്	-11.3953
▁ഒന്നുപോ	-11.3953
▁rajanikanth	-11.3953
▁ഊമ്പിക്കും	-11.3953
▁Madhuraja	-11.3954
▁aavashyam	-11.3954
▁pazhassiraja	-11.3954
▁ONN	-11.3954
▁norm	-11.3954
▁tholvikal	-11.3954
▁താറ	-11.3954
▁അടക്കി	-11.3954
ലീസ്	-11.3954
▁പെർഫോ	-11.3954
▁Ohhhh	-11.3955
▁bhagyam	-11.3955
▁1:55	-11.3955
▁thrilled	-11.3955
pwli	-11.3955
▁മുഴു	-11.3955
▁sept	-11.3955
▁Immanu	-11.3955
▁പൊറി	-11.3955
▁boradic	-11.3955
▁ഇറക്കുന്നു	-11.3955
▁karsha	-11.3955
▁നീറ്റ	-11.3955
▁vachitund	-11.3955
VY	-11.3955
ngikko	-11.3956
▁ക്രിസ്ത്	-11.3956
▁Rajavu	-11.3956
▁apaaram	-11.3956
▁Pooram	-11.3956
▁വരട്ടെ	-11.3956
▁didn	-11.3956
▁vicharikunnu	-11.3956
▁pravarthicha	-11.3956
iyadh	-11.3956
▁Adipoly	-11.3956
▁sadanam	-11.3956
▁cycle	-11.3956
▁thonnunnath	-11.3957
▁kanichilla	-11.3957
▁nadakilla	-11.3957
▁Sheriya	-11.3957
▁ചത്ത	-11.3957
▁0:51	-11.3957
▁kaannan	-11.3957
▁ഇങ്ങനല്ല	-11.3957
▁uranga	-11.3957
▁കാണുമോ	-11.3958
▁Abud	-11.3958
▁theernada	-11.3958
▁Deli	-11.3958
▁pettennu	-11.3958
win	-11.3958
▁njamal	-11.3958
▁Surag	-11.3958
▁maathramano	-11.3958
▁chaava	-11.3959
▁തൃശ്ശൂര	-11.3959
▁kittiyilla	-11.3959
ippa	-11.3959
▁എത്തിക്കും	-11.3959
CHO	-11.3959
▁konduvaa	-11.3959
▁കറക്റ്റ്	-11.3959
▁thoot	-11.3959
▁ക്ലീഷ	-11.3959
▁dop	-11.396
▁marinj	-11.396
lettanu	-11.396
ങ്ങും	-11.396
▁ആകുമോ	-11.396
▁nerkku	-11.396
▁ടെല	-11.396
▁191	-11.3961
▁അഭിനയിക്കുന്നത്	-11.3961
▁അമ്മായി	-11.3961
▁ഇന്ത്യക്കാ	-11.3961
തുക	-11.3961
▁vannolum	-11.3961
▁adhyam	-11.3961
▁kandillel	-11.3961
▁2.7	-11.3962
ORD	-11.3962
▁Ikkkaaa	-11.3962
▁koray	-11.3963
uveee	-11.3963
▁ഡയറക്ട	-11.3963
▁പ്രെസെന്റ	-11.3963
▁പടവ	-11.3963
▁ishda	-11.3963
▁kndapo	-11.3963
▁thonnunath	-11.3963
▁frames	-11.3963
Vinayakan	-11.3964
▁blood	-11.3964
▁rajayalla	-11.3964
▁പൊയ്	-11.3964
hiyavar	-11.3964
▁parayunnilla	-11.3964
▁സുഡാനി	-11.3965
▁babu	-11.3965
arrive	-11.3965
▁adikunne	-11.3965
▁Angeru	-11.3965
പ്രവേശം	-11.3966
ീര്	-11.3966
▁ഇവരൊക്കെ	-11.3966
▁ചത്തു	-11.3967
▁ലൗ	-11.3967
▁VERS	-11.3967
ാമം	-11.3967
▁പോലെയുണ്ട്	-11.3967
▁porikum	-11.3967
▁2005	-11.3968
▁ട്രോളൻ	-11.3968
Enjoy	-11.3968
TY	-11.3968
▁thiricharinj	-11.3968
cat	-11.3968
uthiyirun	-11.3969
oormavanna	-11.3969
cement	-11.3969
▁vitu	-11.3969
▁manasilaayilla	-11.3969
▁എന്റർടൈ	-11.3969
▁kazhiyilla	-11.3969
dhinangal	-11.3969
▁cheyyunavar	-11.397
MASH	-11.397
▁chodya	-11.397
ചെങ്ങായ	-11.397
:1	-11.397
▁ലാഭം	-11.397
ANAM	-11.397
▁ഡയറക്	-11.397
ന്തായാലും	-11.3971
▁aarund	-11.3971
▁ahangaram	-11.3971
▁betham	-11.3971
▁നാട്ടില	-11.3972
▁പേരിട	-11.3972
▁വായോ	-11.3973
▁കേറും	-11.3973
▁മനസിലാകും	-11.3973
▁സപ്പോർട്ട	-11.3973
▁പ്രാർ	-11.3973
▁kazhinjaal	-11.3974
▁നടന്മാരും	-11.3974
▁Enganey	-11.3974
▁ബീഫ	-11.3974
ylock	-11.3975
ധാരണ	-11.3975
▁edaan	-11.3975
▁ഇതിനിട	-11.3975
▁irina	-11.3975
▁കിട്ടണം	-11.3976
▁vismayippi	-11.3976
▁Mudi	-11.3976
▁careb	-11.3976
athathayi	-11.3977
thiyal	-11.3977
▁അടുത്തൊ	-11.3978
ssion	-11.3978
▁മാസാണ്	-11.3978
▁അണിഞ്ഞ	-11.3978
▁ട്യൂബ	-11.3979
▁kodukkanam	-11.3979
▁mump	-11.3979
▁ആകാം	-11.3979
amera	-11.3979
▁Pwolli	-11.398
KO	-11.398
▁enoke	-11.398
▁vanit	-11.398
▁perinu	-11.398
▁Mammokkaye	-11.398
opil	-11.3981
▁ഫു	-11.3981
▁അറബി	-11.3981
bhamanikkun	-11.3982
▁kandathi	-11.3982
▁KF	-11.3982
▁kittu	-11.3982
ാക്കുന്നത്	-11.3982
▁പോളിയാണ്	-11.3982
▁Kadha	-11.3983
▁ദുരന്തം	-11.3983
▁ഒച്ച	-11.3983
▁പൂക്ക	-11.3984
paras	-11.3984
▁nanni	-11.3985
▁yuu	-11.3985
വിഷമ	-11.3986
▁kottaya	-11.3987
unelpp	-11.3987
▁നിലവാരം	-11.3987
▁nilkunath	-11.3987
▁thendikal	-11.3988
▁maattipidi	-11.3989
▁suport	-11.399
▁soubikka	-11.399
▁maka	-11.399
▁സംസ്കാര	-11.399
▁വെട്ടും	-11.399
arinjoode	-11.399
▁dileepettante	-11.399
▁edukuva	-11.399
▁varunnundo	-11.399
▁legends	-11.399
▁abdu	-11.399
▁meleee	-11.399
▁Ex	-11.3991
സൻ	-11.3991
▁പറഞ്ഞിട്ട്	-11.3991
▁ambo	-11.3991
▁Eid	-11.3991
▁dady	-11.3992
▁teernn	-11.3992
▁padamaa	-11.3992
Today	-11.3993
▁പൂർണ	-11.3993
▁പണ്ഡിറ്റ	-11.3993
▁Thin	-11.3993
FI	-11.3994
masinu	-11.3994
▁&&	-11.3994
▁hrid	-11.3994
▁കുളമാക്ക	-11.3994
▁കേട്ടത്	-11.3995
▁aged	-11.3995
snu	-11.3995
▁nivine	-11.3995
▁jilla	-11.3995
▁രോമം	-11.3995
▁അർഹ	-11.3996
▁adikuka	-11.3996
▁നൈലാ	-11.3997
▁Kill	-11.3997
▁murukan	-11.3997
▁ബാപ്പ്	-11.3997
▁oth	-11.3998
▁പെടുന്ന	-11.3998
▁Malayalm	-11.3998
eksha	-11.3998
▁കോൾ	-11.3999
▁ശ്രീനി	-11.3999
kaaru	-11.3999
▁rakshemilla	-11.3999
▁ലും	-11.4
▁fahd	-11.4
▁പോവാൻ	-11.4
▁ഫാന്സിന	-11.4
▁🤭	-11.4
fied	-11.4001
hars	-11.4001
▁cheythool	-11.4001
▁ചല	-11.4001
▁Pothe	-11.4001
▁irangunne	-11.4002
▁UY	-11.4002
ത്തവന്മാരാണ	-11.4002
▁kittila	-11.4003
▁പടത്ത	-11.4003
pathiye	-11.4003
▁vekkaan	-11.4004
▁പറ്റിയത്	-11.4004
Al	-11.4004
aarumillaaa	-11.4004
vunna	-11.4004
▁IRUK	-11.4004
▁മൂപ്പ	-11.4005
▁ഇയാൾക്ക്	-11.4005
▁Sidh	-11.4006
▁ingne	-11.4006
▁ലുക്കും	-11.4006
▁Pwolich	-11.4006
▁achuthan	-11.4007
▁വില്ലേ	-11.4007
▁aaanoo	-11.4007
▁jagapo	-11.4007
..1.	-11.4007
▁REPLY	-11.4007
▁പ്രശ്നം	-11.4007
thall	-11.4007
▁content	-11.4008
▁shylok	-11.4008
▁bhakthans	-11.4008
▁തിരഞ്ഞെടുക്ക	-11.4008
▁പരാജയ	-11.4008
▁prekshakar	-11.4008
▁kunjappan	-11.4008
▁kaathirunn	-11.4009
▁aaswasam	-11.4009
dhamu	-11.4009
▁മനസ്സുമാണ്	-11.4009
▁Pwolikum	-11.4009
▁kalangal	-11.4009
▁eragum	-11.4009
%	-11.401
ച്ചായ	-11.401
▁pwoliii	-11.401
gran	-11.401
elungu	-11.401
▁spar	-11.401
▁കണ്ണൂർ	-11.401
▁padamayirikkum	-11.401
▁ishtamulla	-11.4011
▁dubai	-11.4011
▁ndoo	-11.4011
▁machanmar	-11.4011
▁ഹേറ്റേഴ്	-11.4011
▁premi	-11.4012
▁എത്രപേർക്ക	-11.4012
▁പുലർത്ത	-11.4012
DDI	-11.4013
▁mutta	-11.4013
▁ട്രൈ	-11.4013
▁marannu	-11.4014
▁night	-11.4014
adhyamayitta	-11.4015
▁aashamsakalum	-11.4015
▁cheyyanda	-11.4015
▁stor	-11.4015
▁ദുരന്ത	-11.4016
▁Luccifer	-11.4017
▁njagal	-11.4017
▁kandukondirik	-11.4017
▁avasaram	-11.4018
▁Ikkaaaaa	-11.4018
▁thonnunnav	-11.4018
▁pratheksha	-11.4018
▁kadakum	-11.4018
▁janik	-11.4018
▁kori	-11.4018
▁Adar	-11.4018
▁ക്രീ	-11.4019
▁moonch	-11.4019
..*	-11.4019
▁DL	-11.4019
▁cheythavar	-11.4019
റ്റു	-11.4019
rille	-11.402
▁ഇറങ്ങിയത്	-11.4021
കൊള്ളാമായിരുന്നു	-11.4021
ittaaaa	-11.4021
▁pottunn	-11.4022
▁cris	-11.4022
ഘ	-11.4022
▁കുലം	-11.4022
റേജ	-11.4023
▁Tok	-11.4023
▁njammalu	-11.4024
▁;)	-11.4024
▁ഡയലോഗും	-11.4024
ayed	-11.4024
bes	-11.4025
▁80	-11.4026
▁vesha	-11.4027
▁Ow	-11.4028
ennitt	-11.4028
thin	-11.4029
▁തരംഗ	-11.403
ില്ലന്	-11.4032
▁മുക്കിയേ	-11.4033
▁yenikk	-11.4033
▁Agane	-11.4033
▁abinayikkan	-11.4033
▁🤟🤟	-11.4033
രഹസ	-11.4033
irikkunne	-11.4034
▁akamayirunnu	-11.4034
▁Palakka	-11.4035
രുമ്പി	-11.4035
rous	-11.4036
▁consi	-11.4037
▁പൊട്ടിക്കും	-11.4037
▁Ninake	-11.4038
▁സീനില	-11.4038
thuve	-11.4038
രുന്നാൽ	-11.4038
▁Hindu	-11.4039
exy	-11.4039
▁ഹാങ്ങ	-11.4039
▁nikkanda	-11.404
▁വഴിയ	-11.4041
▁kitum	-11.4043
▁ariyikan	-11.4043
▁🥰🥰🥰🥰🥰	-11.4044
▁vattan	-11.4044
▁nerid	-11.4044
▁santhosha	-11.4045
oooooooperb	-11.4045
▁guyss	-11.4046
oll	-11.4046
▁പോയത്	-11.4046
yittundu	-11.4046
▁manikku	-11.4046
▁43	-11.4047
▁karayipich	-11.4049
▁noolu	-11.4049
▁വിള	-11.405
▁Days	-11.405
▁verunathin	-11.4052
▁madakkiy	-11.4052
▁വരുന്നേ	-11.4053
alettaaa	-11.4053
▁load	-11.4053
▁മറ്റെ	-11.4054
▁Asi	-11.4054
▁kazhcha	-11.4055
▁cheyee	-11.4055
▁ല്ലേ	-11.4055
▁thatha	-11.4056
▁dir	-11.4056
▁തോൽ	-11.4057
nlal	-11.4058
2:19	-11.4058
▁mahanadana	-11.4059
▁തന്ത	-11.406
മരക്കാർ	-11.4061
▁matta	-11.4061
.25	-11.4062
▁pradhan	-11.4063
റ്റഡ്	-11.4063
▁കളയും	-11.4064
▁romanjific	-11.4064
▁വില്ലനെ	-11.4064
▁Aahaa	-11.4065
▁ആഹ	-11.4065
▁ഫ്രഷ	-11.4066
agyam	-11.4066
▁varumbol	-11.4066
െക്	-11.4067
▁kott	-11.4067
മക്കൾ	-11.4067
െയ്യ	-11.4067
koooo	-11.4067
vhe	-11.4068
▁aayadh	-11.4068
▁Whi	-11.4068
▁ithupole	-11.4068
▁matten	-11.4068
▁kandav	-11.4069
▁malayalat	-11.4069
62	-11.4069
MUTH	-11.4069
05	-11.4069
ന്തി	-11.4069
PAVAN	-11.4069
▁anenkilum	-11.407
▁dancer	-11.4072
▁Videos	-11.4072
▁നിറഞ്ഞു	-11.4073
ത്തൻ	-11.4074
jal	-11.4075
amm	-11.4075
▁okkae	-11.4077
ിടെ	-11.4077
▁iragan	-11.4077
▁thall	-11.4077
▁ആൺ	-11.4077
▁rathri	-11.4077
▁ആളെ	-11.4078
▁chekkane	-11.4079
▁irikkuva	-11.4081
▁myrol	-11.4082
▁saadhik	-11.4082
▁poyee	-11.4083
▁ട്രോളി	-11.4083
▁nirayil	-11.4083
▁tonnun	-11.4085
▁പൊളിക്കാൻ	-11.4085
ennalum	-11.4086
▁Entamme	-11.4086
▁cheyyunnath	-11.4086
▁Perf	-11.4086
ലേക്ക്	-11.4087
▁randam	-11.4087
പാത	-11.4087
▁nilkkunnavar	-11.4088
ംഗല	-11.4088
▁Mon	-11.4089
▁kiti	-11.4089
▁prakash	-11.409
aayrnnuu	-11.4091
▁കഴിയുമ്പോഴ	-11.4091
▁Varav	-11.4092
▁pottunnath	-11.4092
▁relate	-11.4093
രാമ	-11.4094
▁പൊന്നെ	-11.4094
RAMAN	-11.4094
dukala	-11.4094
▁Iyal	-11.4095
▁sb	-11.4095
▁Vaada	-11.4095
VERY	-11.4096
▁ayerik	-11.4096
▁kilavan	-11.4096
ted	-11.4097
▁itty	-11.4098
▁ഉളള	-11.4098
▁abhrah	-11.4099
▁ayikko	-11.4099
▁manushyane	-11.4099
▁odeya	-11.4099
WE	-11.41
▁01:4	-11.4101
OLICHU	-11.4101
▁prarthikunn	-11.4101
▁Njagal	-11.4101
▁ഗെറ്റപ്പ	-11.4103
▁thulya	-11.4104
▁divasathin	-11.4104
▁theerumaanamaa	-11.4104
▁rash	-11.4104
▁അഭിമാനിക്കാ	-11.4104
▁spott	-11.4105
▁വ്യത്യസ്തം	-11.4105
▁paryam	-11.4106
▁ಮ	-11.4106
▁compo	-11.4107
▁കൊട്	-11.4108
▁kunchak	-11.4109
▁Murugan	-11.4109
▁fd	-11.4112
▁വാട്സ	-11.4113
▁പടമാണ്	-11.4113
▁క	-11.4113
▁Eante	-11.4114
▁ഞെട്ടിച്ച	-11.4114
▁rajue	-11.4115
▁mothalin	-11.4115
▁തുടർച്ച	-11.4116
▁Acting	-11.4116
▁ഷെഡി	-11.4116
▁girl	-11.4116
▁Salim	-11.4116
▁myrum	-11.4117
dharmajan	-11.4117
و	-11.4117
▁DRAMA	-11.4118
ർപ്പ	-11.4118
▁bhad	-11.4119
▁AS	-11.412
▁വലിച്ചു	-11.412
നിരിക്കുന്ന	-11.412
▁Reddy	-11.4121
െക്ഷന	-11.4122
▁കൊള്ളത്ത	-11.4122
🥰🥰🥰🥰🥰🥰🥰🥰	-11.4122
▁പാളിയ	-11.4123
▁rajaku	-11.4123
▁ബട്ടണ	-11.4124
▁kolagandil	-11.4125
▁happen	-11.4126
▁kids	-11.4129
▁manu	-11.4131
▁ഇവരെയ	-11.4132
bile	-11.4132
▁Mammoo	-11.4132
▁Rajadhi	-11.4135
ൊളി	-11.4135
▁keriya	-11.4136
mnc	-11.4137
ീനെ	-11.4137
ac	-11.4138
▁namud	-11.4139
▁ഞമ്മള്	-11.4142
▁samvid	-11.4143
▁nummada	-11.4143
▁ഗതി	-11.4143
▁Rande	-11.4143
ത്രം	-11.4145
fram	-11.4147
▁3)	-11.4147
reyum	-11.4149
endh	-11.415
▁inghan	-11.4151
ichittund	-11.4152
▁ഇഷ്ട്ടപെട്ടവർ	-11.4152
▁vettu	-11.4154
▁തിരി	-11.4154
▁perude	-11.4154
▁kollum	-11.4154
്യൂസ	-11.4155
rnu	-11.4156
▁ഭക്തന്	-11.4156
▁moviy	-11.4157
▁evidayo	-11.416
▁വേർ	-11.4162
▁vendum	-11.4162
▁FR	-11.4165
▁ന്താ	-11.4165
▁thayyaredu	-11.4165
▁abinayikkunna	-11.4167
tribut	-11.4167
▁Aug	-11.4167
▁പോവും	-11.4168
▁ഉള്ളറ	-11.4168
▁പത്ര	-11.4169
hahahahah	-11.4171
ക്വ	-11.4171
▁kodk	-11.4171
▁പറയുന്നവ	-11.4172
Sathya	-11.4172
▁cheydha	-11.4172
▁സംസാരിക്കൂ	-11.4174
▁Pan	-11.4174
▁ennano	-11.4174
▁പോന്നോള	-11.4176
▁illatta	-11.4176
meaning	-11.4177
▁Kuru	-11.4178
▁ആല്ലേ	-11.4179
ന്നാണ്	-11.4181
▁samsayamilla	-11.4182
്റ്	-11.4183
maare	-11.4183
▁Ven	-11.4186
▁Idakkid	-11.4186
▁nadakkend	-11.4187
▁Ellla	-11.4188
kshakar	-11.4188
diche	-11.4189
bad	-11.4189
thalle	-11.4189
▁തകർക്കാ	-11.419
143	-11.419
▁പുതു	-11.419
▁bhavam	-11.4192
▁ഗിരി	-11.4193
▁jeevane	-11.4193
▁beat	-11.4193
▁erun	-11.4194
paya	-11.4194
▁ആഴ	-11.4196
▁ips	-11.4197
▁Odi	-11.4198
▁jeevikun	-11.4198
yani	-11.4198
▁kanunn	-11.4199
ിലേക്ക	-11.42
ilkkunnavark	-11.4204
▁Orma	-11.4204
▁pwolikk	-11.4204
ലാൽ	-11.4206
▁polikm	-11.4208
ിടുക്ക	-11.4209
▁chydha	-11.421
▁സച്ചിയ	-11.4211
cari	-11.4212
annnuuu	-11.4212
▁ഞങ	-11.4212
▁kandavark	-11.4213
▁ആഗ്രഹമുണ്ട	-11.4214
world	-11.4215
epak	-11.4215
vaade	-11.4215
▁ariyill	-11.4216
▁illathir	-11.4217
aghav	-11.4218
edhu	-11.4219
alaya	-11.422
▁maduth	-11.4221
▁aaro	-11.4222
▁ആദ്യമ	-11.4223
▁ഗ്ലാ	-11.4223
▁poliku	-11.4224
▁theercha	-11.4225
വേ	-11.4226
▁kolum	-11.4226
....🤩🤩	-11.4226
ithenth	-11.4227
▁strike	-11.4228
▁ഭദ്ര	-11.4228
▁snehikunna	-11.4229
▁bhav	-11.4229
▁uuuuu	-11.4229
▁Movi	-11.423
▁Lallettaaa	-11.4233
▁BG	-11.4234
clg	-11.4236
▁ച്യ	-11.4237
▁tw	-11.4237
▁anuu	-11.4238
▁mathramanu	-11.4239
▁Monee	-11.424
▁ENTH	-11.424
▁Iniya	-11.4241
▁chavitt	-11.4242
▁indarnn	-11.4242
Vazh	-11.4242
▁pradheekshikun	-11.4243
▁undooo	-11.4243
ാപ്രേമി	-11.4244
▁ഉഷാറാക്ക	-11.4244
▁tonan	-11.4246
▁സ്ക്ര	-11.4247
▁ന്റ	-11.4248
tholpikkan	-11.4248
▁stop	-11.4249
▁trou	-11.4249
rayile	-11.425
▁kanuka	-11.4251
ttukar	-11.4252
▁Aya	-11.4252
െട്ട	-11.4252
സിസ്റ്റ	-11.4253
▁എടുത്തിരിക്കു	-11.4254
▁ജപ്പാനി	-11.4256
ലോക്	-11.4257
ിലാണല	-11.4258
▁nirthiy	-11.4259
▁മക	-11.426
▁Ga	-11.426
anil	-11.4264
▁vettan	-11.4264
▁gambeeram	-11.4264
▁Kolla	-11.4265
▁abhinayathil	-11.4265
▁kuthh	-11.4266
▁ilaaa	-11.4268
▁parayuva	-11.427
▁artist	-11.4272
vas	-11.4275
▁aaann	-11.4276
▁successful	-11.4277
േഡിയ	-11.4278
▁thonnunilla	-11.428
ലാഭ	-11.4281
▁fahadikka	-11.4281
▁Yesu	-11.4284
except	-11.4285
vazh	-11.4286
wantham	-11.4286
ooking	-11.4289
▁pradik	-11.429
:45	-11.4293
lity	-11.4294
▁രൂപയ	-11.4296
നെർ	-11.4297
▁Ash	-11.4298
preb	-11.4298
ുണ്ട	-11.4299
▁nokkanam	-11.4299
▁mairan	-11.4299
▁saudi	-11.4301
▁Endu	-11.4302
യുഡ	-11.4302
ുകയാ	-11.4303
▁വീര	-11.4304
arrier	-11.4305
യ്ലർ	-11.4307
▁Pada	-11.4309
edit	-11.4309
▁imma	-11.4311
▁kayarumen	-11.4311
▁ചേട്ടന്മാര	-11.4312
▁ഉൾപ്പെടുത്തി	-11.4313
lection	-11.4316
OLL	-11.4316
▁Perr	-11.4318
▁കോഴിക്കോട്	-11.4319
▁mand	-11.4319
▁kannanm	-11.4319
lil	-11.432
ഫൻസ്	-11.4321
ീഫ	-11.4321
telungu	-11.4322
▁പ്രജയി	-11.4322
▁karym	-11.4322
▁nadane	-11.4322
aliyil	-11.4323
mammokaaaaaa	-11.4323
▁thivasa	-11.4324
▁Bul	-11.4325
▁thinna	-11.4329
▁ചൂട	-11.4329
▁അപാര	-11.4329
▁Rajini	-11.433
▁trilar	-11.4331
▁2-	-11.4331
▁AKK	-11.4332
▁మ	-11.4334
സലീം	-11.4334
▁മരക്കാര്	-11.4336
▁chatha	-11.4336
▁ithanu	-11.4337
▁mathiii	-11.4338
നുള്ളത്	-11.4338
▁Kya	-11.434
▁കളഞ്ഞ	-11.434
lain	-11.434
▁kattakku	-11.434
▁powerful	-11.4341
▁kerumenn	-11.4341
undavum	-11.4342
pathi	-11.4342
▁വളർ	-11.4342
▁Pinn	-11.4343
▁ivdey	-11.4346
▁prema	-11.4347
▁many	-11.4349
ekoodi	-11.435
▁തീര്	-11.4354
▁Ark	-11.4356
ദേഹ	-11.4358
▁cheyya	-11.4359
ipikuka	-11.4361
adutha	-11.4361
▁confid	-11.4363
▁paramb	-11.4365
▁പിള്ളേരുണ്ട	-11.4365
▁udheshiche	-11.4366
ണ്ടിവിടെ	-11.4366
chavark	-11.4367
▁ariyoo	-11.4368
ulavar	-11.4369
▁1)	-11.4372
mariyan	-11.4372
▁kazhiya	-11.4375
▁Hoo	-11.438
hivaraj	-11.4382
▁edippa	-11.4384
innichekane	-11.4384
iss	-11.4386
▁സൂ	-11.4389
▁paranjatha	-11.439
▁45	-11.4392
▁anthas	-11.4392
masala	-11.4393
▁koz	-11.4394
▁ennariy	-11.4396
▁Sar	-11.4397
ിമകൾ	-11.4398
നഗ	-11.4399
▁kop	-11.4399
▁cinemayk	-11.44
▁nday	-11.4402
▁തൂക്ക	-11.4402
▁വിശേഷ	-11.4405
▁Itticha	-11.4406
amana	-11.4406
nille	-11.4407
▁analle	-11.4408
▁adicheee	-11.4408
uthiya	-11.441
spir	-11.4411
ക്കപ്പ	-11.4412
▁Kodukk	-11.4413
▁nalay	-11.4414
ell	-11.4414
▁vechekun	-11.4415
▁his	-11.4416
▁atta	-11.4417
▁സൗബിന	-11.4417
▁kadhaya	-11.4418
▁ചാവാറാ	-11.4418
▁Pottum	-11.4419
▁motion	-11.4421
▁summa	-11.4421
▁vijayikk	-11.4422
▁Kaa	-11.4426
ദനം	-11.4427
▁Laaleta	-11.4429
രഷൻ	-11.443
ാട്ടി	-11.4431
▁kg	-11.4436
pillai	-11.4436
Mutheee	-11.4436
യിലേത	-11.4437
ikkaan	-11.4438
▁frnd	-11.4439
yundu	-11.4439
achanu	-11.4439
eerali	-11.4442
▁kayinjal	-11.4443
▁hittakum	-11.4443
▁pereyull	-11.4445
▁ص	-11.4445
ATHU	-11.4446
▁ബാർ	-11.4447
ttimani	-11.4448
idh	-11.4448
▁പുരുഷൻ	-11.445
▁romanjamm	-11.4451
തലക്കു	-11.4453
rest	-11.4453
▁thazh	-11.4453
atikootu	-11.4455
▁Mi	-11.4459
▁aaran	-11.4462
തിങ്	-11.4463
illenkil	-11.4464
്യാർ	-11.4466
▁pettann	-11.4467
tegi	-11.4467
▁nad	-11.4468
▁മര	-11.4469
▁vilikan	-11.447
▁ജോബ	-11.4471
higam	-11.4472
▁##	-11.4473
▁ഉണ്ടാക്കി	-11.4473
▁ചൊറി	-11.4474
▁cinemakka	-11.4477
ബൊ	-11.4478
▁നെഞ്ച	-11.448
ുമാണ്	-11.4481
▁നെറ്	-11.4482
▁appuram	-11.4483
deda	-11.4484
▁kaniha	-11.4485
▁fo	-11.449
▁idunnath	-11.449
ത്തം	-11.4491
ീസുക	-11.4491
BU	-11.4491
▁supp	-11.4492
▁Shain	-11.4493
aley	-11.4493
▁bhashaye	-11.4495
▁2)	-11.4496
▁parannad	-11.4499
ammo	-11.4501
▁Koo	-11.4501
thanthakku	-11.4503
▁Sp	-11.4506
par	-11.4507
hinju	-11.4507
lappan	-11.4509
kayum	-11.451
manna	-11.4511
▁abima	-11.4513
▁adikkunund	-11.4514
ന്‍റ	-11.4514
▁hardworkin	-11.4514
▁Avar	-11.4516
DHI	-11.4519
jn	-11.4519
thile	-11.4521
▁പേരില	-11.4523
ാരിറ്റി	-11.4524
▁വിന	-11.4525
ahnn	-11.4525
▁mor	-11.4526
ാനെ	-11.4527
arana	-11.4528
▁ഷൈലോക്കിനെ	-11.4528
കിതര	-11.453
▁Veru	-11.4533
aayit	-11.4533
ggar	-11.4533
cation	-11.4534
▁Chey	-11.4535
▁kkaru	-11.4537
▁കഥാപാത്രങ്ങള	-11.4538
▁ishtapedun	-11.4538
▁priyadarshan	-11.4542
▁konn	-11.4543
araye	-11.4543
udu	-11.4543
▁unduu	-11.4544
dum	-11.4545
▁adikeda	-11.4547
▁stars	-11.4548
▁കഥകള	-11.4548
▁Powlii	-11.4549
ളിൽ	-11.4551
▁Bigb	-11.4553
gaa	-11.4554
yyyyy	-11.4555
▁Sharukhan	-11.4556
▁chyt	-11.4557
▁ellatha	-11.4557
local	-11.4557
േയ്	-11.4557
▁ചി	-11.4559
▁bigil	-11.456
mathi	-11.456
▁mammukkaa	-11.4561
▁vaashi	-11.4564
▁പുകയ	-11.4564
▁Are	-11.4564
heyyuv	-11.4567
▁illathakka	-11.4568
▁മോഹൻദാസിന	-11.4568
▁മനസ്സിലായ	-11.4569
▁net	-11.457
ായവർക്ക	-11.4576
zh	-11.4577
▁മണക്കുന്ന	-11.4582
▁പേ	-11.4582
▁അനു	-11.4583
▁tens	-11.4584
▁Adh	-11.4584
▁കഴിയ	-11.4589
ittille	-11.459
ose	-11.4592
uster	-11.4593
▁Mann	-11.4593
edukam	-11.4594
മ്മോ	-11.4597
allika	-11.4599
▁kaanam	-11.4601
▁KO	-11.4603
▁വ്യക്ത	-11.4604
രോജ	-11.4604
▁ആണെന്നു	-11.4605
kengilum	-11.4606
ayya	-11.4607
ളാ	-11.4611
▁enthaanenn	-11.4611
▁mak	-11.4612
▁Devi	-11.4613
▁ealla	-11.4614
▁thannne	-11.4616
laya	-11.4617
ാർക്ക	-11.4618
▁pulimur	-11.462
▁kathirunn	-11.4622
▁kndpo	-11.4624
▁adupp	-11.4624
evide	-11.4624
ദ	-11.4624
ിക്കട്ടെ	-11.4624
end	-11.4631
▁Naan	-11.4632
▁Achaya	-11.4633
ർത്തി	-11.4634
കുന്നത്	-11.4637
pidichavar	-11.4638
▁അല്ലോ	-11.4639
▁lover	-11.464
▁അവര	-11.4643
▁വന്നോട്ട	-11.4643
▁Dy	-11.4644
mathe	-11.4644
▁madhuray	-11.4647
pum	-11.465
▁karuthun	-11.4651
oolatharam	-11.4652
▁എഫ	-11.4653
▁ketapol	-11.4657
nat	-11.4658
yirikku	-11.4658
▁thaara	-11.4661
▁parayanillaa	-11.4662
III	-11.4665
▁noor	-11.4666
▁angot	-11.4667
aog	-11.4667
▁കൂട്ടി	-11.4668
ശരി	-11.467
thentha	-11.4673
▁adikkunnu	-11.4673
▁poliyan	-11.4674
athath	-11.4677
uluu	-11.4678
ന്ദ	-11.468
ലോട്ട	-11.4681
.03	-11.4681
hilayidath	-11.4682
swe	-11.4683
▁ത്രില്ലടിച്ച	-11.4683
▁Dileepet	-11.4683
▁vichar	-11.4684
mootty	-11.4686
▁massaa	-11.4688
maranamaas	-11.4689
▁FO	-11.469
േഷന്	-11.4692
▁inde	-11.4692
▁കാത്തിരിപ്പിന്	-11.4694
▁Aana	-11.4694
▁mathiyarunn	-11.4695
ാലക്കുട	-11.4695
▁aavathirun	-11.4695
▁Kochi	-11.4696
▁atre	-11.4698
▁Rand	-11.47
papa	-11.47
zzzzz	-11.4703
ബാ	-11.4704
▁Canad	-11.4704
മിച്ചു	-11.4707
▁avasara	-11.4708
▁നോക്കിയത	-11.4713
805	-11.4713
▁Plz	-11.4713
amankam	-11.4713
▁പൂ	-11.4714
▁mothal	-11.4715
kya	-11.4715
▁കസ്	-11.4716
▁annna	-11.4718
▁pushi	-11.472
▁Soora	-11.4721
athoru	-11.4723
▁rashtriy	-11.4724
മാക്സ്	-11.4725
▁പരീക്ഷ	-11.4725
▁സമയമ	-11.4728
ാദം	-11.473
Mammooka	-11.4732
▁Eniki	-11.4734
▁iranga	-11.4736
▁എന്നുള്ള	-11.4738
▁nira	-11.4739
▁തീർ	-11.474
ulavr	-11.4741
▁illada	-11.4741
പവൻ	-11.4742
▁ആണെന്നുറപ്പ	-11.4743
idaku	-11.4743
▁350	-11.4744
over	-11.4745
▁pram	-11.4747
▁chin	-11.4747
▁Channel	-11.475
▁കണ്ടിരുന്ന	-11.4751
▁urapulavark	-11.4753
ANUR	-11.4756
▁മാക്സി	-11.4758
▁തുടങ്ങുന്ന	-11.476
kkendivar	-11.476
thalam	-11.4761
isam	-11.4762
▁cinemed	-11.4763
▁adhik	-11.4764
▁stha	-11.4766
rial	-11.4766
ാരോ	-11.4767
vettu	-11.4767
▁kayar	-11.4767
▁സംശയവു	-11.4768
ated	-11.4769
▁Hey	-11.477
ton	-11.4771
▁thiruth	-11.4772
▁സ്ക്രീനി	-11.4774
▁Ikkakk	-11.4775
)...	-11.4781
▁srinivasa	-11.4782
▁കേറ	-11.4783
ങളുടെ	-11.4784
▁akkan	-11.4785
▁നോട്ടത്തി	-11.4786
▁banay	-11.4788
▁Janapriyan	-11.4792
▁wat	-11.4792
ളൻ	-11.4794
▁നടത്തുന്ന	-11.4797
▁er	-11.4804
▁തോന്നിയില്ല	-11.4807
▁Satya	-11.4808
nteyum	-11.481
▁enthon	-11.481
EX	-11.4813
vidunna	-11.4816
▁ozhivak	-11.4817
adikam	-11.4817
▁Ithray	-11.4818
▁Orika	-11.4818
▁powlikk	-11.4821
▁Bo	-11.4821
▁PO	-11.4823
▁പൊടി	-11.4825
odipa	-11.4826
ുദ്ധി	-11.4827
▁keran	-11.4828
ിളക്ക	-11.4832
▁nadik	-11.4833
shing	-11.4834
▁uy	-11.4838
▁mammoooka	-11.4838
▁ഉണ്ടായി	-11.484
▁കാണുവാ	-11.4841
attathe	-11.4844
വരവാകട്ടെ	-11.4845
▁ellavare	-11.4847
▁adda	-11.4848
▁കാണാനാ	-11.4849
▁pillare	-11.485
▁naan	-11.4851
▁robot	-11.4851
▁pwolikan	-11.4851
nk	-11.4851
▁kazhinn	-11.4851
▁thonu	-11.4856
▁മതിവര	-11.486
▁ആളല്ല	-11.486
▁thudangan	-11.4863
▁pila	-11.4863
renkilum	-11.4868
days	-11.4869
[...]
